#version: 0.2
Ä ł
i n
e r
o n
e s
e n
e d
a n
a t
a r
a l
o r
in g
Äł s
Äł c
r e
t i
i s
Äł p
i c
l e
i t
r o
Äł d
a s
Äł S
e l
u n
a c
Äł C
en t
i on
u r
u s
i l
o m
Äł b
o l
Äł m
Äł t
Äł f
a m
e t
a d
r i
Äł P
Äł A
Äł M
er s
e c
l y
Äł B
e m
u l
at ion
i d
Äł in
r a
Äł R
u t
c h
Äł re
o s
Äł T
Äł h
Äł D
a b
ti on
i g
t er
a g
o t
- -
i m
Äł g
u m
a p
Äł H
Äł l
i r
es s
Äł F
Äł L
Äł e
v e
c e
Äł w
Äł G
o w
t s
Äł E
o p
o c
es t
Äłc on
v er
an d
s t
Äł r
o d
q u
Äł n
Äł I
Äł W
Äł N
t h
is t
at e
a y
p l
Äłs t
en d
f f
u c
ti c
Äł un
o g
a k
Äł v
i p
it y
an t
Äł K
u b
o us
u p
Äłe x
. .
t ed
u g
ar d
Äłp ro
¢ Ä
e p
i v
u d
= =
Äł O
Äł o
as s
en s
h er
il l
i b
a v
m ent
Äł V
-- --
al l
a in
an s
Äłc om
i e
o un
Äł J
i f
Äłd is
el l
i es
at ed
ig h
Ã ĥ
al ly
h e
t ing
ac k
o ur
t r
£ Ä
in e
i z
i a
Ã ¢Ä
ab le
o k
0 0
e g
Ã £Ä
an g
p h
Äłs p
Äł a
or s
or t
u re
Äłs h
e f
1 9
Äłc h
i ve
on s
o b
ar y
_ _
r y
ag e
Äł U
d er
e ar
is h
ÄłI n
e x
i an
i ti
as t
or m
r es
Äł ad
k s
ation s
g e
ÄłC h
c l
Äł ac
i al
e v
p er
or d
Äł an
ap p
Ãĥ Ä
en c
ec t
e w
ar t
o v
ÄłS t
tion s
an c
el y
us t
a il
Äł im
ic k
en ce
Äłc l
an ce
Äłt r
un d
p r
Ã Ĥ
e y
e b
Äłr es
a w
p t
r ed
Äł j
in d
Äłs c
at ing
== ==
Äł k
ac h
i re
le c
Äł ar
ig n
oc k
igh t
i k
at h
ti m
* *
or e
ic al
ent s
ow n
.. ..
s e
on t
o ut
as h
ÄłS h
ac t
a h
o y
at t
ug h
b er
c om
Äłt h
Äł en
Äł ro
u e
l l
s h
is s
e e
l o
l es
in t
Äłp l
id e
---- ----
r ic
t y
on e
Äłcom p
Äł le
in s
on d
Äł em
y s
on g
al s
ing s
Äłp re
ro w
ri b
ar e
ti ve
am p
E R
m in
er v
Äłc o
ol d
y n
ol l
a z
i ous
t e
ar k
an n
at es
or y
ÄłA n
i tion
Äłs ub
Äłb l
Ã£Ä ¥
l ed
r ess
r am
u al
Äł al
Äłre c
Äłcon t
p e
p ro
Äł Y
Äłf l
i x
p or
ri g
ÄłP ro
it e
ol og
et s
os t
a ir
Äł qu
en ti
Äłp ar
ul t
i le
ac e
ter n
o u
ion s
o ver
an k
Äłcon s
oun d
m an
or n
it s
ÄłC om
__ __
f ul
Äłin s
2 0
s s
v en
i ed
ar m
Äłs l
Äłp er
it h
st r
Äł ab
is m
Äłin t
e ad
v es
Äł ass
Äł app
in c
er n
ÄłA l
f t
o od
Äł op
ÄłA r
Äłin d
e al
i o
o o
p os
is e
O N
i er
o ot
ÄłS p
Äłin ter
# #
a x
e at
l ing
o ok
p p
r it
r ad
at ch
ar n
ic e
em ent
I n
R E
r on
er t
Äłp h
/ /
f orm
v ers
at or
at ive
ar g
ÃĥÄ ¤
ÃĥÄ ¥
s c
ÄłE x
Ã£Ä ¤
ÃĥÄ¥ ÃĥÄ¤
e as
r u
ÄłT h
ak e
e le
p le
Å Ĥ
Äł or
ti t
ic h
Äłd ec
il ity
ri d
ec h
Äłin c
A T
a f
o x
en g
Äłs up
ÄłC l
uc k
Äło b
Äłtr ans
1 8
c t
t on
in k
es c
en n
an e
ur es
ri m
Äłcom m
iti es
f l
u ff
Äł Z
Äł am
uc t
t t
at er
Äłd ef
el d
ur n
il d
Äłf or
et h
ra ph
Äło ver
ÃĥÄ¥ÃĥÄ¤ ÃĥÄ¥ÃĥÄ¤
A R
c i
ar s
ic t
um b
p ec
w e
Äł ra
in n
is ts
os s
c ess
p s
Ã ¥
or k
Äłs e
us h
ul l
Äło ut
Ã¢Ä ¢Ä
i ff
an ts
ÄłC on
et er
ÄłA d
ib le
==== ====
I N
l and
n e
r ac
u tion
at s
at ic
ti v
Äłre f
Äłre l
ment s
ÃĤ ÅĤ
S t
Äł Q
is c
as e
el s
om e
ut h
Äłw h
ow er
ÄłE n
S T
n ess
y m
y p
al e
ad e
ay s
iz ed
1 0
Äłs ur
am e
Äłdis c
E N
d uc
g er
m er
o h
s y
Äł y
in es
en er
ro p
Äłd ep
as c
Äłt ra
ÄłU n
** **
C h
O R
e h
g ed
i ent
i um
v is
Â ¯
en e
Äłc or
ÄłS c
Äłst r
o ol
p ort
ar r
Äłs w
ic s
Äłre g
le t
ur s
ul ar
oun t
if ic
Äłac c
enc y
lec t
p ar
Äł ap
Äł att
re e
re at
it ch
Äłm an
ÄłP l
Äłn e
tic s
ard s
ie w
.... ....
l ess
Â ©
re m
Äłd ist
ÄłM ar
ot t
Äłg l
um p
2 5
4 0
a i
a us
a ugh
b le
ti s
it ed
ÄłP h
Äłin v
os e
Äłg u
E S
m ed
Äł ag
Äłc ol
re t
ri v
ra w
ra in
Äłcon f
tic al
1 5
1 6
A L
a u
o ul
r en
r an
Â ¦
Äł Ã
Äł up
Äłs k
Äłp res
ic ally
us s
et t
ri p
ÄłB l
ation al
Ã¢Ä ¢
3 0
A N
o le
r is
ar i
ÄłT r
ot h
ip p
Ã£Ä¥ Ä
L E
a un
c tion
h t
i eld
o in
o ugh
u es
y l
Äł ti
Äłs m
ro m
Äłre m
ag es
Äłe v
pr ess
Ã¢Ä¢Ä ¶
1 2
1 4
1 7
c ed
m it
Â ½
er r
al k
re g
re am
ti f
ent ly
ÄłM c
em b
ut e
ot s
op h
pl ic
ff ic
ib er
-------- --------
1 3
5 0
A S
a ve
c on
j ec
p ir
Äł ent
er ed
at ely
or th
Äłc ar
ro ll
un g
ap t
ub l
ug g
ish ed
8 0
I C
I T
e ed
g an
re w
re ad
Äłd es
un n
il y
ec k
Äłin f
ow s
2 9
3 3
7 0
A n
b s
f or
s on
Äł X
er y
Äłd i
ur ed
om in
ÄłA c
Äłre t
og raph
iv ers
iz e
+ +
2 4
2 6
e an
h ip
k e
er c
er e
Äłc r
le g
Äłd em
as k
Äłb r
ÄłA m
ra y
ÄłR e
ter ed
Äłg r
Äłun der
ak ing
? ?
T h
d en
o on
v ent
Â ¿
er g
al d
ti es
ro und
ur g
Äłm od
ers on
ir c
ÄłG u
Äłex pl
Ã¢Ä ¸
Äłsp ec
Äłem b
2 7
2 8
6 0
O U
b o
b y
n ow
o ad
ar ch
Äłp r
Äłd et
ÄłC ol
ra g
ab ly
oc c
ver y
her e
ex t
olog y
____ ____
A C
I S
a im
i or
m on
v el
Â £
Äł el
Äł end
at ors
Äłc al
Äłp ol
it al
it or
Äłd el
Äłm in
am m
ÄłP ar
ab ility
ÄłF l
ce p
Äłr ed
qu e
ÄłI m
iv es
6 6
h ib
k y
p an
r up
s ec
w ay
w ard
z z
Äł as
Äłc ur
Äłd ev
om b
Äłm on
id er
ch ed
Äłre p
ag n
ap s
Äłr est
pl oy
Äłun d
Äłex p
cl ud
ÃĤÅĤ ÃĤÅĤ
2 3
9 9
A M
E D
I D
l ine
o ff
s p
in al
al y
Äłc oun
le y
un t
ad d
ce pt
op p
and s
end ing
Äłex t
our n
00 00
enc es
anc es
\ \
b e
d ay
i et
m un
m iss
o es
u ally
y ing
Ã ¦
Ä ª
Äł at
on es
ar c
re as
Äłp at
it t
it er
ur al
om s
Äłb e
ÄłB r
os p
um ent
Äłle g
rig ht
## ##
sy ch
3 5
O T
P ro
a j
a ur
a id
i ans
o id
u k
u ro
~ ~
Â ¼
Ä ¢
Äł Ã¢Ä
in ed
or ed
ti l
as ter
ÄłS ch
un k
ac y
ÄłB e
ÄłR es
ÄłR ec
Äłw e
end er
ip s
ÄłO r
ack s
Äła ff
ÄłIn d
// //
ech n
ÃĥÄ¥ÃĥÄ¤ÃĥÄ¥ÃĥÄ¤ ÃĥÄ¥ÃĥÄ¤ÃĥÄ¥ÃĥÄ¤
ÄłQ u
Ã¢Ä¢Ä¶ Ã¢Ä¢Ä¶
4 5
C om
E n
a ul
a ff
b r
o e
v ed
v iew
y d
Ã ©
Äł all
er m
en ed
ar b
al ity
Äłs im
Äłp red
el ess
il i
Äłb o
Äłb re
Äłm et
ÄłA b
em ents
id es
ra p
ch es
ot e
ÄłE m
Äłcon d
Äłcon tr
ate g
end s
iz ation
ang e
Äłim p
lo ad
1 1
2 00
3 7
E C
E T
E x
c k
e qu
f er
g ing
g et
g ress
h am
l i
p ut
w h
Ã ¯
Äł enc
Äł occ
on n
on y
an a
Äłs ec
is on
is ed
Äłp o
le x
ÄłS l
ur ing
Äłb ro
Äłt he
am b
am ent
ch e
od e
ak es
Äłpro t
Äło ff
Äłan n
tim e
rib ut
3 6
; ;
O S
c es
e en
i ol
l d
m ar
o ft
v al
y r
y th
in a
on om
ed d
at ure
ar ian
Äłc oll
re l
ti g
is ing
is tic
Äłd e
el f
ÄłC ont
ur r
us e
Äłm o
Äłm is
ri pt
ÄłA p
ra ft
Äłh e
ab or
ÄłL e
op e
op s
od y
ÄłW h
Äłpro m
iv ely
ens e
ain s
I ON
O L
O M
U n
b l
d u
j ect
r est
u x
Äł ed
Äł ec
Äł ir
en ing
ar l
ar ed
Äłs n
Äłc he
ro ss
Äłd o
ÄłC or
ur d
ur y
il it
Äłb ack
Äłf r
Äłf ac
Äłf il
am s
ri f
ÄłA ss
ÄłM an
ers t
em p
ul ation
Äłh and
ap e
ir t
ess ion
od d
end ed
ain t
ain ed
if ied
igh ts
00 0
Äła ut
Äłres p
ire ct
enti al
======== ========
3 4
3 8
7 5
A d
C H
I L
O D
S h
c ent
m s
o f
r ation
y st
Â «
er ing
at her
ar ies
or ies
Äłs ol
Äłc irc
re en
ic ro
it ing
Äłd own
as ed
ÄłC ons
us ion
us tr
Äłb el
Äłm ed
Äłf orm
ra v
Äłh om
ir l
oc i
Äłn eg
Äłv is
Äłv ol
Äłpro f
ud e
ear s
Äład d
out h
ee k
uth or
6 5
A D
E M
b ack
c le
i h
i ver
l er
m ing
o int
r al
r ist
u el
Ã §
Äł id
Äł ill
Äł av
Äłc ap
Äłp os
Äłp ass
ic tion
it es
ro g
Äłd r
Äłd eb
el op
Äłm ar
Äłt er
id ed
Äłin st
ÄłR eg
ut s
Äłh um
Äłl o
oc r
and ing
ÄłI s
uc tion
tic ip
ous e
ous ly
ell ing
Äła w
ort un
19 8
19 9
iti ve
ail s
Äłk n
ik e
over n
**** ****
ubl ic
! !
3 9
4 4
7 7
E L
O W
i qu
i tions
k i
n er
o ti
u ch
z e
Ã ¤
Äł us
en tion
at is
at ter
Äłs al
Äłs ign
Äłs yn
Äłc ri
Äłp ers
ic es
Äłd iff
as es
ÄłS T
ÄłS w
ÄłS tr
ac c
ÄłC o
ur b
Äłb i
ol i
Äłf in
am in
am es
em ber
id ent
ÄłR ep
Äłre v
ot her
ÄłG l
ÄłE l
pl ay
Äłun s
og n
ak er
ud d
av or
Ã¢Ä ¶
ok e
Ã£Ä £
Äłch ar
ÄłIn t
Äład v
Äłan ti
ious ly
ful ly
Äłor gan
eng th
oul d
) )
6 8
> >
A A
A P
A l
C T
c c
d own
e in
i at
u ild
u zz
Â §
Å ĥ
Äł ve
er o
on ic
es ts
at ory
ar th
or ks
Äłs us
Äłs uc
re qu
Äłp e
Äłp ur
le v
Äłd iv
ÄłS up
un ction
ac tion
Äłm ul
Äłt e
Äłt ro
Äłin fl
Äłh ead
Äłg ener
ÄłE d
oc ks
Äłr en
ens ion
all s
our s
res p
res ent
ord s
ord in
sh ip
row n
ple ment
Äłob s
aus e
4 8
5 5
7 8
A r
I G
P h
a e
c ons
g u
g es
g ram
g rad
l in
l ish
m a
m e
n ec
o ve
y cl
Â ¢
Â ³
Ã ¨
Å ģ
Äł ÃĤ
ar a
Äłs qu
Äłc le
re c
is es
is ion
Äłp sych
ic ation
Äłd esc
as ting
ÄłS ur
ac es
ur t
Äłb en
Äłb eh
ol ution
Äłt w
am er
ri es
ÄłM in
ÄłM on
em s
ul ated
id d
ra z
Äłre b
Äłh el
im e
im ent
um m
ir d
ir ed
ÄłF r
ÄłF or
Äłe qu
ce ed
est ing
ÄłN e
th er
Äłpro p
ie f
ef ul
ear ch
ect or
anc y
ust om
Äłen g
olog ical
ves tig
eal th
Ã¥ Ä
Ã¢Ä¶ Ä¢
2 2
4 9
6 9
= -
C l
R A
T r
U S
U T
V ER
a ud
c ont
e ep
f act
h a
h es
l ight
m od
n ey
p et
u ed
v ing
Â ¥
Â ¸
Ä ´
Äł u
Äł er
Äł ver
Äł tim
in ter
in ess
er b
at al
ar ter
al t
ing er
Äłs ens
re ed
is ter
le ment
it ation
Äłd oc
ac ed
us ed
Äłt em
et her
et ting
ri end
ÄłP at
ÄłM ed
ÄłB ro
em in
em on
id s
os h
ÄłD is
um er
op er
est ed
ver tis
Äłn ot
Äłun f
Äłv al
ep end
iv ed
ill s
ill ing
if e
if t
Äłdis s
iz ing
res h
cl aim
Äłac com
ail ed
aw n
lec tr
Äłcont in
por ts
enti f
ert ain
EN T
ÄłTr ans
Ã¢Ä¸ Äª
7 9
I m
O O
S c
a uc
b or
b all
c er
i j
i ence
o tion
s w
w ork
Â ®
Äł i
Äł est
Äł ÃĤÅĤ
in o
er ry
on str
en a
ed er
an y
or es
or ld
Äłs ch
Äłs ym
Äłc er
Äłc ent
re p
it z
it ting
ro l
Äłd en
Äłd est
ÄłS e
el t
ac ter
ac ts
ÄłC ar
il s
il ities
ol ic
am a
am ed
et te
ad i
ri ed
ÄłP r
ÄłM or
ul ate
ÄłR ob
ÄłR ev
ut ed
Äłh or
ÄłD ef
ag ing
Äłg en
ir es
ir st
ow ed
oc al
Äłn ew
ÄłN ew
pl es
tic k
ak s
ub e
Äłex per
Äłpro v
ep t
ens ive
ill ed
ib r
ib ility
av ing
ry pt
enc ies
Äłim m
Äłapp ro
IN G
........ ........
5 9
8 8
A Y
C L
I P
O P
P l
W h
b it
c ing
d o
h ood
k ey
o ch
s k
u y
u le
u it
v ir
w ar
x x
y pe
Â º
Â ¾
Ã Ĺ
Äł z
Äł es
in ary
es e
at ur
at ives
al es
Äłc re
re h
ti al
Äłp le
Äłp op
ro up
ro ugh
ÄłS er
ÄłS im
un s
ÄłC al
il es
il ar
ol id
Äłm ark
Äłf e
ÄłA g
ÄłA t
ec tion
ec ted
ly ing
ul s
id ing
Äłin n
ra b
Äłre al
ÄłT H
Äłh yp
ig r
ag on
um in
ÄłL eg
Äłe p
Äłw ith
Äłw ork
ÄłI d
ist or
Äłst ri
tic ally
iv ing
ain ing
Äłcom pl
ell s
ang er
ear ing
anc ed
lec tion
Äłar ch
ign ed
Äłpl ay
min ist
yn am
Äłsub s
por ted
tern al
Äłab s
oot h
Äłph ot
Äłcomm un
Ã§ Ä
) .
, "
E E
I I
S p
b re
c ul
g r
h em
i el
l ig
o il
p ower
s pec
u fact
w are
Â ¤
Â ±
Â ¶
Â ¹
Â »
Ã Ĳ
Äł rid
in ing
es ter
ed ia
ar p
ar ing
ar ge
ar ily
al ys
or ts
or der
Äłs er
Äłc ul
Äłp un
Äłp ort
Äłd er
Äłd eter
as p
as on
ÄłC an
us es
Äłb as
Äłb eg
ol ar
Äłm or
Äłt her
ad s
ers hip
em pl
ul f
Äłin iti
ut ter
ÄłT w
Äłh on
ÄłD e
ÄłD ev
ag ed
ot es
im b
Äłg rad
um e
ap er
Äłl og
ÄłG r
ow ing
est y
Äłcon c
Äłcon v
Äłn o
ÄłI N
ist ed
ant ed
Äłex c
.. .
iv id
ÄłO p
Äłcom b
Äłdis app
ok ing
ang u
ish ing
iti z
Äład j
Äłim pro
Äłcl ass
Äłtr ad
ash ed
iss ion
ond s
Äłpre c
ÄłAn g
ition al
ÄłPro t
ou ch
Äłop er
Äłph ys
tit ution
Äłam b
ific ation
now led
________ ________
cep tion
vir on
4 7
: :
@ @
B C
F F
H A
I R
P S
U L
U R
a it
a ut
a ult
c ol
c ast
e es
g g
i am
i os
i ally
l im
m p
m y
o ice
r ug
s er
s ter
t es
u tions
Â ¡
Â µ
Ã ĺ
Ã Ļ
Äł ri
Äł ens
Äł esc
in ce
in der
es h
en ess
an ks
ar es
al f
al i
Äłs le
Äłs il
Äłs ter
Äłs um
Äłs erv
re y
is l
Äłp en
Äłp ri
Äłp art
ic ks
it ness
as ts
ÄłS ec
ÄłS ub
ac ted
ÄłC r
ent h
us ter
il ing
om an
Äłm e
Äłm em
Äłm ill
Äłt ri
Äłt echn
Äłf und
am ing
et ers
ri e
ri min
ÄłP er
ÄłP al
ÄłP res
ÄłA ll
ÄłM od
ÄłB re
em y
id el
ÄłR el
ÄłR ef
ut t
Äłre qu
ÄłD es
Äłg o
um ber
ÄłH e
Äłl im
Äłl and
ir m
ir th
ÄłG e
ow ers
ver t
and er
ay er
ay ing
Äłst at
ak ed
ant ly
ep ar
iv il
ÄłO b
Äło vers
ib ly
ÄłJ ud
if y
Äłdis p
ell ed
ack ed
ack ing
iz z
ok ed
ang ed
19 7
ÄłU S
ÄłIn s
ÄłIn ter
ex ual
ian ce
cl us
Äłac qu
Äłac tiv
ial s
pr int
ind s
ind ing
ach ing
ock ing
se qu
ash ing
ber g
lo od
ys ter
ÄłAn d
air s
ven tion
str uct
ÄłAr ch
Äłsup er
we et
oh n
rop ri
Äłne igh
med i
rip tion
---------------- ----------------
bo ard
miss ion
atis f
Äłsus p
Ã¢Ä¶Ä¢ Ã¢Ä¶Ä¢
" :
) ,
, ,
4 6
5 8
A c
C E
C ol
C ont
G G
I F
I M
O C
Q u
R ep
a ver
e k
f ord
f ect
g h
h old
i ec
i ents
k ins
l or
m m
p at
r or
r ont
t or
t ra
v il
v est
w ord
w ays
w ards
y e
Â ¨
Ã İ
Ä ¤
Ä §
Ä ³
Ä º
Ä Ń
Äł on
Äł ing
Äł is
Äł ang
Äł ign
on der
on ym
at a
or ing
or row
ing u
Äłc our
Äłc amp
Äłc ele
re et
re ct
ti tion
is her
Äłp oss
Äłp rac
ic ate
ic ted
it her
ro om
Äłd ele
ÄłS al
un e
ol f
ol t
ol y
ol er
ol der
Äłm er
Äłm icro
Äłt ax
ÄłP re
ÄłA f
ec ts
ec tive
ÄłB ar
ÄłB el
ul es
id ence
Äłin com
ra f
ra ve
ÄłR E
ut es
Äłre pe
ÄłT he
Äłh er
Äłh ar
ÄłD em
ab b
ab les
ag s
ag er
Äłg e
um n
um an
ÄłH ar
Äłl oc
Äłl aw
Äłe lect
st ein
Äłun l
og ue
ak ers
Äłv iol
Äłex ec
ep h
iv al
av es
av en
ment al
ÄłV al
all ing
ie v
ell er
igh ting
he ad
Ã£Ä ¢Ä
Ã£Ä £Ä
ang ing
Äła f
Äła ir
Äła ud
Äłsh ort
19 0
ast e
ord ing
ock et
out s
ber t
com m
Äłro b
Äłpre m
Äłqu al
oo oo
pos e
ook s
pp ed
ci pl
ÄłPh il
ran ch
ipp ed
++ ++
ÃĤÅĤÃĤÅĤ ÃĤÅĤÃĤÅĤ
ourn al
\\ \\
#### ####
~~ ~~
//// ////
ÃĥÄ¥ÃĥÄ¤ÃĥÄ¥ÃĥÄ¤ÃĥÄ¥ÃĥÄ¤ÃĥÄ¥ÃĥÄ¤ ÃĥÄ¥ÃĥÄ¤ÃĥÄ¥ÃĥÄ¤ÃĥÄ¥ÃĥÄ¤ÃĥÄ¥ÃĥÄ¤
Ã¢Ä¢Ä¶Ã¢Ä¢Ä¶ Ã¢Ä¢Ä¶Ã¢Ä¢Ä¶
Ã© Ä
Äłocc up
yst em
=- =-
Ã¢Ä¸Äª Ã¢Ä¸Äª
ÄłÃĤÅĤ ÄłÃĤÅĤ
" "
' '
) ;
2 1
6 7
A G
I A
O n
P R
R es
S P
T S
U M
U N
c o
c re
e ver
f ield
g o
g round
h ab
m en
m et
m ark
o z
p re
r ing
s l
t op
u a
u il
u ous
w ell
y cle
Â ¬
Â °
Â ·
Ã Ħ
Ã ł
Ä ¦
Ä ±
Äł ide
in y
in ation
er ence
er man
es tion
an o
ar ant
al le
or ted
Äłs o
Äłs em
Äłs oc
Äłs epar
Äłc red
Äłc ann
re ction
is p
Äłp ay
Äłp rim
Äłp riv
ic i
it ter
ro s
Äłd ig
as ing
as ion
as tic
ÄłS m
un der
ac ing
ac he
ent al
ur ch
il ed
om m
Äłb ar
Äłb ul
ol it
Äłf er
Äłf ire
Äłf oot
ri al
ri ev
ÄłP e
ÄłA s
ÄłA pp
ÄłM et
ÄłB o
ul ations
id n
Äłin form
Äłin vestig
ÄłR em
Äłre in
Äłre pl
os es
ÄłT e
ÄłT er
ÄłT ra
Äłh ard
Äłh igh
Äłh app
ÄłD isc
ab in
ab lish
ag ue
ot o
ot al
im al
Äłg overn
Äłl ab
Äłl if
Äłl iber
Äłe ff
Äłw r
Äłw id
ÄłE r
op y
and ed
and om
od s
ÄłW e
Äłst ar
Äłst and
Äłun b
ak en
Äłex tr
Äłpro duc
ep s
ill a
ell ig
ell ow
our ce
tr y
ok en
Äła uthor
ors e
Äład vis
cl os
enc ed
Äłim ag
Äłj ud
ach es
ach ed
ire c
ock ed
att le
com e
rib e
amp le
Äłsub sc
ound s
Äłint eg
Äłop tim
pp ing
rit t
atch ed
RE S
eas on
Äłdec l
ech an
ink ing
pec ted
inn er
mer ic
vis ion
augh ter
ipp ing
aun ch
ÄłMc C
An d
ÄłAc c
ograph y
Äłpr inc
rag on
sec ut
Äłbro ad
Äłdo ub
Äłaut om
Äłmul ti
. "
5 7
A pp
A tt
B l
C C
C S
I t
P L
P ar
S E
T H
U D
V E
a o
a ire
a ign
b ox
b urg
d a
d e
d s
d om
e ff
f ort
g n
g in
g reg
h us
i us
i ers
i ant
j oy
k in
n es
n ing
p on
s m
u ing
u ation
u ate
x y
y an
Â ª
Â ´
Ä ¯
Äł rig
Äł eth
in em
er a
er k
on a
on ald
es is
ed s
an es
an ia
at o
ar re
ar ks
or a
or al
or ity
or ge
ing ing
Äłs ac
Äłs tim
Äłs af
Äłs uff
Äłc an
re ens
ti ce
ti ves
Äłp ed
Äłp ain
Äłp oll
Äłp ost
ic ip
ic ations
le an
le ar
ro y
ro id
Äłd on
Äłd ed
Äłd ri
Äłd omin
as y
ÄłS n
ÄłS om
el er
un ch
un te
ÄłC L
ÄłC he
ion e
ur ation
om et
Äłb ur
ol s
ol es
ol ly
ol ph
ol ves
Äłm el
Äłm ur
Äłm ut
Äłm os
Äłm ag
Äłm ass
Äłm eas
Äłf am
et y
ad es
ad ing
ri ef
ÄłP et
ÄłA S
ÄłA tt
ÄłM il
ÄłM ad
ÄłB ul
em pt
id ents
Äłin j
Äłin tr
Äłin tim
ÄłR eb
ut er
ut ch
Äłre ce
os ter
Äłh arm
ÄłD o
ÄłD et
ÄłD ep
ab led
ig g
ag ger
ot a
im um
Äłg ra
ÄłH aw
Äłl ic
Äłl ist
Äłl ob
Äłl ik
ÄłF in
ÄłL ev
Äłe lectr
Äłw a
ÄłE th
oc ation
st ant
st all
od es
ÄłN ic
pl om
pl ace
Äłst ud
uc ks
Äłun c
Äłv ers
Äłv iew
ip e
ÄłK n
ill ion
ÄłV ol
eg a
ph as
Äłsp r
ry ing
ÄłU s
orm al
Äłan aly
ov ing
ick ed
Äłcl os
Äłsc r
lec ted
Äłem ploy
az e
Äłrec ogn
pro duc
por ting
Äłcons tit
ound ed
ound ing
pos ed
eat her
In d
In t
Äłph il
ÄłEx pl
Äłor ig
rid e
rid ge
Äłinc or
Äłtrans l
umb n
Äłra p
inn ing
land s
atic ally
ÄłEn g
Äłsur v
ool s
ough t
rom e
err or
alk ing
plic ation
jec ts
unn ing
Äłspec ial
Äłcoun ter
opp ing
;; ;;
Äłcoll abor
Äłec onom
Äłresp ons
Äłobs erv
Äłben ef
Äłbeh av
Äłu til
4 3
9 0
9 5
C P
E G
F O
F T
G B
I ST
L e
O G
O r
P D
R ec
R eg
T C
U G
U s
X T
a ith
b ro
b id
b our
e a
e el
f ig
f ace
g l
g ers
h et
i as
i est
i que
l s
l an
o ud
p o
p ect
p ret
r ate
r ated
s el
s et
v ant
v ail
z en
Ã ĳ
Ä ¶
Ä ¼
Ä ¾
Äł ant
Äł ack
Äł iss
in er
in th
in ity
er al
er ve
er ts
es tern
en z
an i
an ti
at in
at ively
or p
Äłs u
Äłs ett
Äłs ugg
Äłc ro
Äłc and
Äłc apt
Äłc ustom
ti re
is k
Äłp al
Äłp ot
Äłp ress
Äłp urs
Äłp erson
ic ial
ic ient
it ted
it ors
ro duc
ro du
Äłd am
Äłd im
Äłd eg
Äłd raw
as ted
ÄłS k
ÄłS he
ÄłS ci
un c
ac le
ac ting
ac tive
ÄłC re
ÄłC ent
ÄłC ap
ÄłC our
ÄłC ON
ent ed
ur a
ur er
ur ity
us c
us ing
us ted
om es
om en
Äłb al
Äłb ull
Äłb omb
ol k
ol ved
Äłm en
Äłm id
Äłm ir
Äłm ess
Äłm ort
Äłm ob
Äłm eth
Äłt re
Äłt ac
Äłt urn
Äłt yp
Äłf re
Äłf av
Äłf ix
et ing
ad o
ri an
ri tion
ÄłP R
ÄłP an
ÄłP ass
ÄłP sych
ÄłA T
ÄłA th
ÄłM o
ÄłM er
ÄłB ur
ul a
ul ti
ul ts
Äłin str
ÄłR o
ÄłR ed
Äłre ad
os is
os ts
ÄłT or
ÄłT ro
Äłh ur
Äłh ear
ÄłD el
ÄłD ec
ÄłD oc
ÄłD eb
ot or
im ate
Äłg ro
um s
um ents
ap ter
ÄłH el
ÄłH igh
Äłe y
ve y
ÄłG o
ÄłE v
Äłcon ver
and a
and on
st on
Äłr ad
qu er
Äłn on
Äłn ut
ÄłI t
ist ing
ist ry
ist ance
pl oad
end ers
Äłun w
Äłv ac
Äłv ari
ub b
ub le
up p
up s
Äłex press
ug e
ug s
Äłpro b
Äłpro gress
Äłpro gram
ÄłO n
ens ions
ill er
av y
all ed
all eng
ans w
Äłcom ment
ack er
our ces
tr act
iz es
ang es
Äłsp e
Äłsp ir
Äła uth
ef ore
19 6
ÄłU N
ÄłU l
ÄłIn c
Äłac h
ev en
ev elop
app ed
app ing
ew s
ov es
ov ed
pr ising
ey s
eb ook
red d
tim es
act or
oy s
lo om
ric t
Äłcomp os
ys s
row s
row ing
rib ed
rib ution
amp ion
min ation
old s
yn c
az ing
ann ed
ÄłAn n
ram e
ÄłPro v
Äłpar ticip
ult ural
ÄłCom mun
Äłper form
pos ition
ÄłSp ec
eat s
atch ing
arn ing
form ation
Äłse qu
Äłref er
Äłap pl
Äłman if
ÄłPl ay
ble m
con om
eed s
Äłdes ign
ograph ic
Äłdem onstr
Äłgr and
?? ??
erg y
rup t
Äłdev elop
iet y
Äłann oun
Äłed uc
================ ================
Äłcirc um
Äłneg oti
Äłid entif
ortun ately
Äłdiff er
Äłsuc cess
iec e
vil le
Äłcele br
- +
8 9
< /
A m
A ss
B S
C on
C onn
D E
E O
E W
F C
F l
H T
H z
M ar
M ag
N T
P G
S A
S ec
T R
X X
b i
b on
c el
c est
c ell
c ious
d es
d uct
d raw
e ffic
f e
g or
h el
i y
i en
i ro
i ra
i able
k n
k es
l u
l ic
l iv
m l
m ost
o is
o tic
p d
p ly
p ass
p ath
p oint
r ick
r uct
s en
s ide
u als
u ke
v iously
w ind
{ "
° Åģ
Â ²
Ã ı
Ä ²
Äł ic
Äł ur
Äł om
Äł ess
Äł ath
Äł own
Äł asc
in ks
en ge
an et
an ity
at ural
ar ity
ar ted
ar ry
ar ious
al ized
or g
or ial
or gan
Äłs at
Äłs or
Äłs ti
Äłs it
Äłs om
Äłs id
Äłs pl
Äłc at
Äłc as
Äłc art
Äłc anc
Äłc reat
Äłc rypt
Äłc ivil
re al
re pr
re ci
ti le
Äłp ack
Äłp ath
Äłp ric
Äłp ower
ic ul
le ts
it a
it ect
it ely
it ual
it arian
Äłd u
Äłd eal
Äłd ict
as tern
ÄłS u
ÄłS at
ÄłS il
ÄłS am
ÄłS pe
el lect
un icip
ac her
ÄłC ur
ent y
us iness
il ly
Äłb et
Äłb all
Äłb att
Äłb rew
ol is
Äłm at
Äłm us
Äłm ist
Äłm ath
Äłm iss
Äłm isc
Äłm ean
Äłm agn
Äłm aj
Äłm echan
Äłt o
Äłt ur
Äłt eas
Äłt ele
Äłf le
Äłf ur
Äłf lo
Äłf oll
Äłf asc
Äłf rag
ad or
ad em
ad ow
ri ve
ÄłP ri
ÄłP ers
ÄłP ort
ÄłA D
ÄłA N
ÄłA lex
ÄłM e
ÄłM al
ÄłM el
ÄłM ac
ÄłM us
ÄłM ag
ÄłM ay
ÄłM iss
ÄłM ark
ÄłM ich
ec ess
ÄłB as
em e
em ed
em ploy
ul ner
id ers
Äłin tern
Äłin hib
ÄłR om
ÄłR et
ÄłR od
ut en
ut her
ut ting
ch ant
ch ron
Äłre comm
os en
ÄłT it
ÄłT rad
ÄłT echn
Äłh y
Äłh op
ÄłD r
ÄłD am
ab e
ab y
ab il
ab et
ag o
ag ement
ot yp
-- -
im m
Äłg round
um es
um ing
ap h
ÄłH er
ÄłH on
Äłl ine
Äłl ong
ir ty
ir gin
ess ed
ÄłL iber
Äłw ar
Äłw or
Äłw ors
Äłw ater
ÄłG ener
ÄłG reen
ÄłE ll
Äłcon st
ver age
st an
Äłr ac
od ox
ÄłI S
ÄłI ll
ÄłW H
ÄłW ill
th s
th rop
pl ed
Äłst e
uc cess
Äłun ivers
og g
og s
og y
Äłv ig
ip her
Äłex hib
ard ed
ard ing
Äłpro s
Äłpro cess
Äłpro hib
ep ing
ÄłO w
Äło ffic
av a
av al
ÄłV er
all ow
ie ve
oun g
oun ter
ÄłJ ul
if er
Äłdis m
ell a
ell ar
he tic
our ed
ok es
ang el
ph one
Äłsh ow
19 5
Äłch em
Äłch eck
ob e
ÄłIn f
ast ro
orm s
Äład m
Äład minist
ge on
ÄłCh rist
Äłac cess
per t
Äłan y
enc ing
ÄłSt ud
anc ing
ust ain
ick ing
Äłcl in
und red
Äłres id
Äłres erv
aw s
Äłj u
Äłj us
lec tions
Äłar r
ik i
ash es
ash ion
Äłth r
Äłen h
sh ips
int end
ric h
ric s
Äłcomp e
Äłpre fer
rib ute
Äłco ordin
pro f
Äłfl u
ult ure
ank ed
ank ing
arm s
arm ing
Äłper pet
inc t
ÄłAl b
ood s
ÄłAr m
Äłind ic
rit er
atch es
vers e
ÄłEx t
ru it
af e
Äłob jec
Äłtrans form
rim e
Äłdef in
Äłfor g
umb le
we en
ÄłAd d
rac y
tiv ely
Äłreg ul
Äłap olog
Äłman ufact
Äłne ed
rem e
ott en
augh t
Äłcol on
rain ed
AL L
uss ion
oth ing
oin ts
Äłev al
press ion
mit t
mit ted
AS S
Äłent hus
orth y
unn y
Äłmod er
OU R
Äłpol ic
cep tions
Äłas tr
Äłrep resent
Äłund erst
clud e
clud es
clud ing
Ã¦ Ä
Äłat tr
Äłpat ri
Äłleg isl
En g
Äłcontr ad
wh el
wh ile
ÄłCont in
Äłmo tiv
ustr al
Äłter min
******** ********
Äłcri tic
Äłinfl u
eful ly
ritt en
Äłphil os
Äłack nowled
repr ene
" ,
9 8
A B
C R
C ons
E Y
E d
E m
E ST
F L
I s
M L
M S
M od
N A
N et
O V
O p
O RE
P P
P r
P re
Q U
R I
S L
S er
S im
S up
S tr
S pec
T ER
T ext
W e
` `
a a
a el
b al
b ol
b ody
c s
c ement
c oh
c ycl
d is
d em
d oc
d ep
d ef
e z
e ast
f all
f riend
g y
g ar
h h
h al
h and
h ost
h ouse
i ation
i od
i tic
i very
j i
k ing
l am
l ers
l ation
l og
m ate
m ond
m osp
n ic
o ter
o ir
o op
p m
r ent
r end
r ite
s pe
t w
t ar
u h
u an
u ce
u ary
u its
v y
v in
v ity
w in
w est
w ide
w ith
w ich
w ater
x im
y le
z ed
} ,
¨ Ä´
Ã ħ
Ä £
Ä µ
Ä »
Å Ģ
Äł ly
Äł ul
Äł tit
in i
in os
in ts
in ated
in ally
er ent
en ef
ed ge
at i
at ers
at form
ar u
ar row
al g
al ed
al se
or ation
or tion
or ous
or ph
or age
or ough
Äłs en
Äłs ing
Äłs and
Äłs av
Äłs ex
Äłs we
Äłs atisf
Äłc os
Äłc ow
Äłc op
Äłc ard
Äłc ry
Äłc ru
Äłc aus
Äłc ross
ti st
is er
is tered
Äłp an
Äłp il
Äłp ul
Äłp ast
Äłp ron
Äłp itch
Äłp ubl
Äłp ublic
ic a
ic ed
ic ts
ic he
ic ian
ic tions
ic ious
ic ians
le ge
it able
it ude
ro c
ro vers
ro oms
Äłd at
Äłd il
Äłd irect
Äłd irec
as er
ÄłS H
ÄłS P
ÄłS U
ÄłS y
ÄłS en
ÄłS or
ÄłS qu
ÄłS pr
el a
el ing
el ine
un es
un ct
ac tions
ÄłC er
ÄłC her
ÄłC ath
ÄłC lo
ÄłC ong
ent le
ur ance
il tr
il ater
om ing
Äłb an
Äłb le
Äłb ec
Äłb ra
Äłb oun
Äłb ook
Äłb uff
Äłb urn
Äłb ott
Äłb uild
Äłb rief
ol ate
ol esc
Äłm al
Äłm il
Äłm ay
Äłm ix
Äłm ax
Äłm arg
Äłm asc
Äłm erc
Äłm igr
Äłt es
Äłt en
Äłt or
Äłt op
Äłt rig
Äłt we
Äłt rem
Äłt ext
Äłf ab
Äłf ig
Äłf ore
Äłf act
Äłf ram
Äłf ree
Äłf avor
Äłf ulf
am ine
et a
et ter
ad er
ri age
ÄłP L
ÄłP ay
ÄłP erson
ÄłA L
ÄłA M
ÄłA v
ÄłA ut
ÄłA ud
ÄłM at
ÄłM em
ÄłM ess
ÄłM ont
ÄłM ah
ly mp
ÄłB ow
ÄłB udd
em n
em por
ul ous
Äłin qu
Äłin her
Äłin ex
ra el
ÄłR h
ÄłR est
ÄłR ich
ÄłR uss
ut y
ut ers
ut ely
ut ton
Äłre view
os c
ÄłT ur
ÄłT im
Äłh un
Äłh ab
Äłh ot
Äłh ous
Äłh istor
ÄłD E
ÄłD i
ÄłD est
ÄłD own
ÄłD irect
ab s
ab el
ab ilities
tion al
ig ration
ag u
ag en
ot ed
ot ing
ot ype
Äłg un
Äłg raph
ap on
ap ing
ap ers
ÄłH or
ÄłH un
Äłl ay
Äłl iter
ir ing
ir ts
ess ions
ÄłF il
ÄłL uc
ÄłL og
ÄłL ou
Äłe le
Äłe arn
Äłe very
Äłw eb
Äłw arr
ÄłG en
ÄłG ar
ÄłG ri
ÄłG ra
ÄłE p
ÄłE qu
ÄłE very
op le
oc ated
oc ial
oc used
Äłcon ce
Äłcon ven
Äłcon str
Äłcon cent
Äłcon nec
st ro
st anding
Äłr ul
Äłr adi
od ed
qu is
Äłn ight
Äłn arr
Äłn orth
Äłn omin
ÄłI P
ÄłI r
ÄłW ar
ÄłW al
ÄłW il
ÄłW eb
ÄłN or
ÄłN ot
ist ent
ist ers
ist ant
ist ence
Äłst ra
Äłst art
uc ted
uc tions
tic es
og en
og ether
Äłv an
Äłv ill
Äłv eter
Äłv irt
Äłv acc
ip er
ub s
Äłex h
Äłpro l
Äłpro pos
Äłpro jec
iv en
ud den
ÄłO s
ÄłO ff
ÄłO per
ass es
ens es
ens ity
ib l
av id
all er
oun ts
oun ted
ÄłJ er
ÄłJ ack
ÄłJ enn
Äłdis ag
igh ter
our ge
our se
tr ess
ok er
Äłsp ons
Äłsh oot
Äłch ild
Äłch alleng
ob s
ob al
ÄłU k
ear ly
ish es
ÄłIn vestig
ast y
Äład op
Äład vent
Äład vertis
cl usion
ord ers
Äłan al
Äłan im
art ment
ov en
ov ers
ÄłSt at
ÄłSt ar
ÄłSt eph
Äłim pl
Äłim per
Äłcl aim
pr ise
pt on
red it
Äłsc i
Äłk ey
ach el
Äłar g
Äłar m
Äłar tif
ock er
ath an
tim ate
oy al
ugh t
ber ry
Äłth ro
Äłen joy
Äłro t
Äłro ll
iss ance
Äłcomp ar
Äłem phas
ys ical
Äłpre t
Äłpre par
row d
ER S
oll ow
az a
te en
ann y
ann er
ann ing
ann el
ress ed
ram s
Äłal tern
Äłal leg
Äłrec ip
Äłcont ribut
pro t
ix el
rig h
ÄłPro f
air y
air ed
Äłpar tic
over e
over y
over ed
Äłcons ult
Äłcons ider
ÄłCom m
Äłins pir
arm a
ead er
Äłass ass
Äłass oci
Äłapp ropri
ern and
ÄłAr g
eal ing
rit ing
rad e
In ter
Äłph en
arg et
AT E
ox ic
eng er
Äłob lig
ane ous
Äłam pl
ict or
umb ers
Äłse ver
ush ed
ÄłAd v
tiv ity
St ud
St ream
Äłwh is
Äłcor rel
Äłstr ong
Äłstr ateg
Äłstr ength
ount ain
ific ations
Äłacc eler
Äłman ip
Äłne uro
less ly
ump ed
tis an
ÄłPh ot
Äłgu i
ES S
riv ing
rain ing
ren ch
ÄłÃ İ
Äłpres c
AN T
ris on
Ã£Ä¥Ä ¨
aun t
tif y
tif ied
ÄłMc G
plic it
AS E
roll er
roll ed
IC E
Äłdes p
Äłdi agn
Äłdi plom
ivers ity
ask et
Äłexpl o
oad ed
arch y
AC K
Äłel im
Äłcal cul
rup tion
rup ted
Äłrest ric
opp ed
Äłext rem
osp ital
Äłwe ak
aul ts
Äłsim pl
Äłbre ak
ches ter
fer ence
Äłenc our
onn a
Äłde ep
urr ent
ilit ary
ession al
Äłresp ond
Ad d
Äłbel ie
Äłill ustr
oti ce
Äłchar acter
orks h
Äłpur ch
resp ond
Äłcle an
ÄłSur v
ird s
ÄłFr ank
Äłdoc ument
epend ent
claim ed
ÄłPr inc
Äłsubs id
alys is
ivid ual
itiz ens
viron ment
Äłster e
clus ive
uil t
Äłrein for
Äłmur der
Äłincor por
" .
$ $
% %
' "
1 00
4 1
5 6
A F
A b
A p
A ll
A RE
B A
B I
C O
D R
D s
D es
D is
D et
D oc
D ep
D onald
E P
E V
E XT
F or
I V
I RE
I ED
L oad
M ed
M an
N e
O b
P C
Q L
R C
R e
R el
R em
R ef
R ob
R ev
R equ
R edd
T A
T ON
T ION
U l
U ST
V ID
W ith
a ed
a ug
a und
b ed
b ow
b and
b orn
b ook
b rid
b acks
c an
c il
c ial
c oin
f ix
f ound
g en
g el
g ener
g ht
h ow
h ou
h aps
i i
i ov
i ency
j u
j ud
j ust
k a
k o
k er
k en
k ay
k top
l r
l v
l ad
l ist
l av
l ines
m al
m ade
n ect
n ight
o en
o ing
o ub
o ard
p ent
p op
p ire
p ool
r s
r at
r as
r ance
s o
s ch
s erv
s oft
t ain
t own
t urn
u in
u ated
u tive
v ious
y a
y g
z y
| |
Ã ¡
Ä «
Ä ¬
Äł il
Äł et
Äł ast
Äł Ã¢Ä¢
Äł err
Äł urg
Äł answ
in ted
in ations
in als
er d
er ted
er red
er ences
on ia
on ge
es tic
es tiv
es ome
en ch
en tic
an ch
an im
an che
at tered
al a
al ing
al th
al ks
or er
or ig
ing e
ing ly
Äłs r
Äłs un
Äłs ent
Äłs am
Äłs et
Äłs he
Äłs eg
Äłs anc
Äłs ne
Äłs ome
Äłs oph
Äłs ched
Äłs oft
Äłs ystem
Äłc y
Äłc ig
Äłc ens
Äłc orn
Äłc urs
Äłc ount
Äłc ris
Äłc ateg
Äłc ycl
re f
re es
re ts
re ated
re port
re ck
ti an
ti ll
ti tive
is en
is ode
Äłp et
Äłp ra
Äłp ig
Äłp ip
Äłp ray
Äłp uzz
Äłp ione
ic ing
ic it
ic tim
le ep
le ase
it als
ro ad
Äłd ro
Äłd ark
Äłd ram
Äłd ead
as ant
as ive
ÄłS i
ÄłS ac
ÄłS ab
ÄłS um
ÄłS and
ÄłS ant
ÄłS her
ÄłS av
ÄłS ign
ÄłS yn
ÄłS ym
ÄłS ky
el ed
el ly
el and
el ves
el esc
el come
ac on
ac ity
ac ement
ÄłC H
ÄłC el
ÄłC os
ÄłC oun
ÄłC ann
ÄłC orn
ÄłC ook
ÄłC arn
ÄłC ru
ÄłC ele
ÄłC rim
ÄłC OM
ent ing
ion al
ur red
ur se
il er
il ation
om a
om i
om p
om er
om ic
Äłb u
Äłb es
Äłb ol
Äłb ad
Äłb ow
Äłb ud
Äłb ure
Äłb ath
Äłb ank
Äłb ox
Äłb orrow
ol a
ol ve
ol ving
ol utely
Äłm ent
Äłm om
Äłm and
Äłm ain
Äłm ov
Äłm ind
Äłm emb
Äłm amm
Äłm aster
Äłm aint
Äłm yster
Äłt om
Äłt ot
Äłt um
Äłt ow
Äłt ub
Äłt ack
Äłt our
Äłt ex
Äłt reat
Äłt reas
Äłt urb
Äłt ouch
Äłt oler
Äłf ra
Äłf ant
Äłf ail
Äłf ound
Äłf eat
Äłf urn
Äłf requ
Äłf unction
Äłf emin
Äłf resh
am ph
et ch
et ary
ad y
ad ed
ad el
ad ers
ad vant
ri a
ri er
ri tical
ri ke
ri ends
ÄłP C
ÄłP en
ÄłP ol
ÄłP art
ÄłP red
ÄłP ark
ÄłP ower
ÄłP rem
ÄłA w
ÄłA z
ÄłA ch
ÄłA ir
ÄłA ug
ÄłA meric
ÄłM L
ÄłM S
ÄłM and
ÄłM ill
ÄłM ort
ÄłM erc
ers e
ers ion
ec d
ec raft
ÄłB y
ÄłB er
ÄłB al
ÄłB ang
ÄłB und
ÄłB ern
ÄłB uff
ÄłB rew
ÄłB arb
em an
em atic
em ale
em ble
ul ly
ul ating
id th
id ate
id ity
id den
id ential
ra h
ra q
ÄłR ub
ÄłR ock
ÄłR oll
ut ing
ut ure
ch er
ch em
ch est
ch arg
ch eck
ch ange
Äłre ve
Äłre ver
Äłre vers
Äłre ason
ÄłT R
ÄłT s
ÄłT ac
ÄłT om
ÄłT ri
ÄłT her
ÄłT ele
ÄłT urn
Äłh es
Äłh am
Äłh os
Äłh all
Äłh yd
ÄłD O
ÄłD on
ÄłD en
ÄłD iv
ÄłD iff
ab l
ab ase
ig m
ig er
ig en
ag h
ag an
ag raph
ot ted
im a
im s
Äłg al
Äłg ri
Äłg ood
um ed
um ph
um ps
ap y
ap es
ap ed
ap an
ap ons
ÄłH y
ÄłH am
ÄłH ow
ÄłH and
ÄłH ard
ÄłH ear
ÄłH ann
Äłl at
Äłl ess
Äłl iv
Äłl ook
Äłl augh
Äłl iqu
ess ing
ess age
ÄłF re
ÄłF ac
ÄłF orm
ÄłF ran
ÄłL ib
ÄłL ear
ÄłL yn
ÄłL aur
Äłe ffic
Äłe arth
Äłe lev
Äłw he
Äłw ast
Äłw ild
Äłw rest
Äłw eek
Äłw orld
Äłw onder
ÄłG P
ÄłG al
ÄłG old
ÄłG ood
ÄłG overn
ow der
ÄłE V
ÄłE s
ÄłE ss
ÄłE uro
ÄłE lectr
ÄłE conom
op ic
oc us
oc ate
oc racy
est ers
est ation
est ine
Äłcon vers
Äłcon fl
Äłcon duc
Äłcon gr
Äłcon sequ
st ers
st ance
st ore
st ream
Äłr h
Äłr at
Äłr un
Äłr um
od ing
od ay
od ies
od ge
qu es
Äłn u
Äłn in
Äłn et
Äłn av
Äłn ob
Äłn ov
Äłn ational
Äłn ecess
ÄłW he
ÄłN Y
ÄłN o
ÄłN et
ÄłN ik
ÄłN orth
th ing
th ers
ist an
ist le
ate ver
ate ful
ay ed
pl ing
Äłst ret
Äłst ream
Äłst aff
end ant
end ants
uc ed
Äłun t
Äłun ex
Äłun int
og a
og le
og rap
ak a
Äłv o
Äłv it
Äłv ide
ip h
ip le
ant ing
ÄłK e
ÄłK at
ous es
up t
Äłex erc
Äłex ceed
Äłpro sec
Äłpro ceed
iv ity
ÄłO P
ÄłO m
ÄłO ut
ÄłO rig
ÄłO ffic
ÄłO cc
ÄłO lymp
Äło x
ass ic
ens ed
her n
ÄłV is
ÄłV eg
all ery
ain e
ain er
ans ion
Äłcom ed
oun ce
ÄłJ u
ÄłJ ac
ÄłJ ohn
if ying
Äłdis miss
Äłdis cipl
ell o
igh th
tr ans
iz ard
iz ations
iz ont
ia h
Ã¢Ä º
ok Ãĥ
ph a
Äłsp ect
Äła x
Äła er
ort ex
Äłsh r
Äłch o
Äłch arg
ob i
ob ile
ob by
ry p
ear ed
ear ance
ish op
ÄłIn str
ÄłIn vest
ian a
ast ers
orm on
Äład vers
ÄłCh ar
ÄłCh ris
ÄłCh arl
Äłac t
per ty
Äłan ticip
Äłan cest
app y
app ropri
ew ork
art ers
anc er
anc ial
ust in
ail y
Äłim plement
ick er
ick en
pr ises
Äłres c
Äłres emb
aw a
Äłj ur
Äłj ournal
Äłsc en
Äłk il
Äłk ind
ach ine
ire ction
Äłar tic
ight y
ight ers
ik h
ik es
out ing
out he
com ing
com pan
Äłth reat
Äłro und
Äłro ck
ee ing
lo ok
int ers
Äłcomp le
Äłcomp et
Äłcomp rom
Äłcomp lex
Äłle arn
ins on
ond uct
Äłem erg
Äłpre ced
amp s
ER E
erv ation
erv ative
Äłco inc
Äłco oper
old ing
oll ar
az i
az z
az ard
az ine
te in
ann ers
ition ally
Äłbl ock
ress ing
Äłal ter
Äłrec k
Äłrec on
Äłcont empl
Äłfl av
Äłfl ash
por tion
olog ically
Äłqu e
Äłqu estion
enti ally
Äłpar am
ÄłCom p
ism s
Äłass ign
Äłass emb
Äłapp ar
ern al
ern ity
io let
oo f
pos es
ÄłSp ir
Äłinter ven
Äłinter view
ron ic
Äłph arm
arg o
ÄłEx p
ÄłEx per
ple te
Äłinc re
Äłinc ons
AT ION
Äłsup pl
Äłsup erv
Äłsup plement
uck y
uck er
Äłob sc
Äłtrans c
18 6
18 9
ink ed
enn y
uct ure
ater ial
eth ing
Äłover whel
AR D
AR T
ci ent
pec ts
pec ting
pec tive
Äłra b
inn ers
ush es
ush ing
Ã¢Ä¢Ä µ
Ã¢Ä¢Ä Ń
ÄłCon f
ne tic
Äłrel ig
ÄłEn d
Äłsur round
Äłdisc uss
Äłdisc rimin
oh yd
Äłdep os
Äłdep end
asc ript
Äłtra v
Äłtra vel
OR K
ene z
Äłstr ugg
arr ass
ular ly
ific ant
Äłacc um
Äłap plic
ree k
itch es
Äłdist ribut
Äłdist urb
Äłdist ingu
ump tion
Äłinv est
Äłgu arant
Äłconf ig
au ti
ÄłÃ ¨
Äłup d
ÄłBl ack
oth es
ield s
ield ing
oin ted
Äłti ght
press ed
mit ting
alk er
tif ication
ÄłMc K
oph ob
iber al
jec ted
pir ed
Äłent reprene
roll ing
ubl ished
unn er
ÄłRe qu
Äłunder t
Äłexpl os
Â£ Â«
Äłend e
Äłend ors
ÄłIm pro
Äłas pir
Äłund ers
clud ed
AM E
sp ect
0000 0000
miss ions
itt le
oid s
til ity
ÄłRes p
Äłwe igh
ÄłOr gan
Äłaff ili
oe ver
Äłbre ath
Äłmet ab
load ed
li ament
Äłthe or
yth on
Äłde ploy
ÄłAp pro
Äłhe av
OM E
Äłfr act
Äłfac ilit
ÄłAss oci
IL L
Äłbel ong
Äłvol unte
ih ad
Äłcap ital
Äłinst all
ocr atic
ÄłIs lam
!! !!
Äłpers u
oli tical
amin ation
ÄłInt eg
uild ing
Äłve h
Äłve get
Äłren ew
resp ons
grad e
me tic
nec ess
Äłpsych iat
amer a
idd le
Äłhel p
ÄłFr anc
Äłeng ine
Tr ans
Äłtem per
etting s
Äłaccom pl
Äłaccom pan
Äłaccom mod
Äłest ablish
ÄłDef in
ocal yp
Äłexper iment
ibr ary
Äłes tim
reh ens
Äłinn ov
Äłwith draw
ynam ic
Äłabs or
Äłcul tiv
angu age
titution al
Äłesc al
Äłpen et
Äłpart n
Äłmill enn
Äłfund ament
onym ous
Äłcamp aign
Äłdele g
raf ted
Äłaf ter
On line
olit an
It em
burg h
Äłsac rif
reens h
Äłconstit u
umbn ail
Äłbehav i
prising ly
gor ith
Äłshow c
Äładminist r
Äłphilos oph
coh ol
" /
" >
" ]
( )
( ))
0 3
4 2
7 6
8 6
A X
A f
A g
A s
A t
A meric
A vail
B O
B e
B y
B re
C A
C D
D A
D L
D P
D o
D el
D ec
D em
D ate
D ef
D own
D ER
D isc
E l
E v
E very
F A
F I
F il
F OR
G e
G u
G old
G ener
H H
H S
I B
L D
L eg
M O
M P
M in
M on
M us
M ich
N D
N it
N ame
O H
O ver
O ff
O rig
O ffic
O OD
P M
P N
P er
P al
R L
R S
