{"<s>":0,"<pad>":1,"</s>":2,"<unk>":3,"<mask>":4,"!":5,"\"":6,"#":7,"$":8,"%":9,"&":10,"'":11,"(":12,")":13,"*":14,"+":15,",":16,"-":17,".":18,"/":19,"0":20,"1":21,"2":22,"3":23,"4":24,"5":25,"6":26,"7":27,"8":28,"9":29,":":30,";":31,"<":32,"=":33,">":34,"?":35,"@":36,"A":37,"B":38,"C":39,"D":40,"E":41,"F":42,"G":43,"H":44,"I":45,"J":46,"K":47,"L":48,"M":49,"N":50,"O":51,"P":52,"Q":53,"R":54,"S":55,"T":56,"U":57,"V":58,"W":59,"X":60,"Y":61,"Z":62,"[":63,"\\":64,"]":65,"^":66,"_":67,"`":68,"a":69,"b":70,"c":71,"d":72,"e":73,"f":74,"g":75,"h":76,"i":77,"j":78,"k":79,"l":80,"m":81,"n":82,"o":83,"p":84,"q":85,"r":86,"s":87,"t":88,"u":89,"v":90,"w":91,"x":92,"y":93,"z":94,"{":95,"|":96,"}":97,"~":98,"¡":99,"¢":100,"£":101,"¤":102,"¥":103,"¦":104,"§":105,"¨":106,"©":107,"ª":108,"«":109,"¬":110,"®":111,"¯":112,"°":113,"±":114,"²":115,"³":116,"´":117,"µ":118,"¶":119,"·":120,"¸":121,"¹":122,"º":123,"»":124,"¼":125,"½":126,"¾":127,"¿":128,"À":129,"Á":130,"Â":131,"Ã":132,"Ä":133,"Å":134,"Æ":135,"Ç":136,"È":137,"É":138,"Ê":139,"Ë":140,"Ì":141,"Í":142,"Î":143,"Ï":144,"Ð":145,"Ñ":146,"Ò":147,"Ó":148,"Ô":149,"Õ":150,"Ö":151,"×":152,"Ø":153,"Ù":154,"Ú":155,"Û":156,"Ü":157,"Ý":158,"Þ":159,"ß":160,"à":161,"á":162,"â":163,"ã":164,"ä":165,"å":166,"æ":167,"ç":168,"è":169,"é":170,"ê":171,"ë":172,"ì":173,"í":174,"î":175,"ï":176,"ð":177,"ñ":178,"ò":179,"ó":180,"ô":181,"õ":182,"ö":183,"÷":184,"ø":185,"ù":186,"ú":187,"û":188,"ü":189,"ý":190,"þ":191,"ÿ":192,"Ā":193,"ā":194,"Ă":195,"ă":196,"Ą":197,"ą":198,"Ć":199,"ć":200,"Ĉ":201,"ĉ":202,"Ċ":203,"ċ":204,"Č":205,"č":206,"Ď":207,"ď":208,"Đ":209,"đ":210,"Ē":211,"ē":212,"Ĕ":213,"ĕ":214,"Ė":215,"ė":216,"Ę":217,"ę":218,"Ě":219,"ě":220,"Ĝ":221,"ĝ":222,"Ğ":223,"ğ":224,"Ġ":225,"ġ":226,"Ģ":227,"ģ":228,"Ĥ":229,"ĥ":230,"Ħ":231,"ħ":232,"Ĩ":233,"ĩ":234,"Ī":235,"ī":236,"Ĭ":237,"ĭ":238,"Į":239,"į":240,"İ":241,"ı":242,"Ĳ":243,"ĳ":244,"Ĵ":245,"ĵ":246,"Ķ":247,"ķ":248,"ĸ":249,"Ĺ":250,"ĺ":251,"Ļ":252,"ļ":253,"Ľ":254,"ľ":255,"Ŀ":256,"ŀ":257,"Ł":258,"ł":259,"Ń":260,"Äł":261,"in":262,"er":263,"on":264,"es":265,"en":266,"ed":267,"an":268,"at":269,"ar":270,"al":271,"or":272,"ing":273,"Äłs":274,"Äłc":275,"re":276,"ti":277,"is":278,"Äłp":279,"ic":280,"le":281,"it":282,"ro":283,"Äłd":284,"as":285,"ÄłS":286,"el":287,"un":288,"ac":289,"ÄłC":290,"ent":291,"ion":292,"ur":293,"us":294,"il":295,"om":296,"Äłb":297,"ol":298,"Äłm":299,"Äłt":300,"Äłf":301,"am":302,"et":303,"ad":304,"ri":305,"ÄłP":306,"ÄłA":307,"ÄłM":308,"ers":309,"ec":310,"ly":311,"ÄłB":312,"em":313,"ul":314,"ation":315,"id":316,"Äłin":317,"ra":318,"ÄłR":319,"ut":320,"ch":321,"Äłre":322,"os":323,"ÄłT":324,"Äłh":325,"ÄłD":326,"ab":327,"tion":328,"ig":329,"ter":330,"ag":331,"ot":332,"--":333,"im":334,"Äłg":335,"um":336,"ap":337,"ÄłH":338,"Äłl":339,"ir":340,"ess":341,"ÄłF":342,"ÄłL":343,"Äłe":344,"ve":345,"ce":346,"Äłw":347,"ÄłG":348,"ow":349,"ts":350,"ÄłE":351,"op":352,"oc":353,"est":354,"Äłcon":355,"ver":356,"and":357,"st":358,"Äłr":359,"od":360,"qu":361,"Äłn":362,"ÄłI":363,"ÄłW":364,"ÄłN":365,"th":366,"ist":367,"ate":368,"ay":369,"pl":370,"Äłst":371,"end":372,"ff":373,"uc":374,"tic":375,"Äłun":376,"og":377,"ak":378,"Äłv":379,"ip":380,"ity":381,"ant":382,"ÄłK":383,"ub":384,"ous":385,"up":386,"Äłex":387,"..":388,"ted":389,"ug":390,"ard":391,"Äłpro":392,"¢Ä":393,"ep":394,"iv":395,"ud":396,"==":397,"ÄłO":398,"Äło":399,"ass":400,"ens":401,"her":402,"ill":403,"ib":404,"av":405,"ment":406,"ÄłV":407,"----":408,"all":409,"ain":410,"ans":411,"Äłcom":412,"ie":413,"oun":414,"ÄłJ":415,"if":416,"Äłdis":417,"ell":418,"ies":419,"ated":420,"igh":421,"Ãĥ":422,"ally":423,"he":424,"ting":425,"ack":426,"our":427,"tr":428,"£Ä":429,"ine":430,"iz":431,"ia":432,"Ã¢Ä":433,"able":434,"ok":435,"00":436,"eg":437,"Ã£Ä":438,"ang":439,"ph":440,"Äłsp":441,"Äła":442,"ors":443,"ort":444,"ure":445,"Äłsh":446,"ef":447,"19":448,"Äłch":449,"ive":450,"ons":451,"ob":452,"ary":453,"__":454,"ry":455,"age":456,"ÄłU":457,"der":458,"ear":459,"ish":460,"ÄłIn":461,"ex":462,"ian":463,"iti":464,"ast":465,"orm":466,"res":467,"Äład":468,"ks":469,"ations":470,"ge":471,"ÄłCh":472,"cl":473,"Äłac":474,"ial":475,"ev":476,"per":477,"ord":478,"Äłan":479,"app":480,"ÃĥÄ":481,"enc":482,"ect":483,"ew":484,"art":485,"ov":486,"ÄłSt":487,"tions":488,"anc":489,"ely":490,"ust":491,"ail":492,"Äłim":493,"ick":494,"ence":495,"Äłcl":496,"ance":497,"Äłtr":498,"und":499,"pr":500,"ÃĤ":501,"ey":502,"eb":503,"Äłres":504,"aw":505,"pt":506,"red":507,"Äłj":508,"ind":509,"Äłsc":510,"ating":511,"====":512,"Äłk":513,"ach":514,"ire":515,"lec":516,"Äłar":517,"ign":518,"ock":519,"ight":520,"ik":521,"ath":522,"tim":523,"**":524,"ore":525,"ical":526,"ents":527,"own":528,"....":529,"se":530,"ont":531,"out":532,"ash":533,"ÄłSh":534,"act":535,"ah":536,"oy":537,"att":538,"ugh":539,"ber":540,"com":541,"Äłth":542,"Äłen":543,"Äłro":544,"ue":545,"ll":546,"sh":547,"iss":548,"ee":549,"lo":550,"les":551,"int":552,"Äłpl":553,"ide":554,"--------":555,"ric":556,"ty":557,"one":558,"Äłcomp":559,"Äłle":560,"ins":561,"ond":562,"Äłem":563,"ys":564,"ong":565,"als":566,"ings":567,"Äłpre":568,"row":569,"rib":570,"are":571,"tive":572,"amp":573,"ER":574,"min":575,"erv":576,"Äłco":577,"old":578,"yn":579,"oll":580,"az":581,"ious":582,"te":583,"ark":584,"ann":585,"ates":586,"ory":587,"ÄłAn":588,"ition":589,"Äłsub":590,"Äłbl":591,"Ã£Ä¥":592,"led":593,"ress":594,"ram":595,"ual":596,"Äłal":597,"Äłrec":598,"Äłcont":599,"pe":600,"pro":601,"ÄłY":602,"Äłfl":603,"ix":604,"por":605,"rig":606,"ÄłPro":607,"ite":608,"olog":609,"ets":610,"ost":611,"air":612,"Äłqu":613,"enti":614,"Äłpar":615,"ult":616,"ile":617,"ace":618,"tern":619,"ou":620,"ions":621,"over":622,"ank":623,"Äłcons":624,"ound":625,"man":626,"orn":627,"its":628,"ÄłCom":629,"____":630,"ful":631,"Äłins":632,"20":633,"ss":634,"ven":635,"ied":636,"arm":637,"Äłsl":638,"Äłper":639,"ith":640,"str":641,"Äłab":642,"ism":643,"Äłint":644,"ead":645,"ves":646,"Äłass":647,"Äłapp":648,"inc":649,"ern":650,"ÄłAl":651,"ft":652,"ood":653,"Äłop":654,"ÄłAr":655,"Äłind":656,"eal":657,"io":658,"oo":659,"pos":660,"ise":661,"ON":662,"ier":663,"oot":664,"ÄłSp":665,"Äłinter":666,"##":667,"ax":668,"eat":669,"ling":670,"ook":671,"pp":672,"rit":673,"rad":674,"atch":675,"arn":676,"ice":677,"ement":678,"In":679,"RE":680,"ron":681,"ert":682,"Äłph":683,"//":684,"form":685,"vers":686,"ator":687,"ative":688,"arg":689,"ÃĥÄ¤":690,"ÃĥÄ¥":691,"sc":692,"ÄłEx":693,"Ã£Ä¤":694,"ÃĥÄ¥ÃĥÄ¤":695,"eas":696,"ru":697,"ÄłTh":698,"ake":699,"ele":700,"ple":701,"ÅĤ":702,"Äłor":703,"tit":704,"ich":705,"Äłdec":706,"ility":707,"rid":708,"ech":709,"Äłinc":710,"AT":711,"af":712,"ox":713,"eng":714,"Äłsup":715,"ÄłCl":716,"uck":717,"Äłob":718,"Äłtrans":719,"18":720,"ct":721,"ton":722,"ink":723,"esc":724,"enn":725,"ane":726,"ures":727,"rim":728,"Äłcomm":729,"ities":730,"fl":731,"uff":732,"ÄłZ":733,"Äłam":734,"uct":735,"tt":736,"ater":737,"Äłdef":738,"eld":739,"urn":740,"ild":741,"Äłfor":742,"eth":743,"raph":744,"Äłover":745,"ÃĥÄ¥ÃĥÄ¤ÃĥÄ¥ÃĥÄ¤":746,"AR":747,"ci":748,"ars":749,"ict":750,"umb":751,"pec":752,"we":753,"Äłra":754,"inn":755,"ists":756,"oss":757,"cess":758,"ps":759,"Ã¥":760,"ork":761,"Äłse":762,"ush":763,"ull":764,"Äłout":765,"Ã¢Ä¢Ä":766,"iff":767,"ants":768,"ÄłCon":769,"eter":770,"ÄłAd":771,"ible":772,"========":773,"IN":774,"land":775,"ne":776,"rac":777,"ution":778,"ats":779,"atic":780,"tiv":781,"Äłref":782,"Äłrel":783,"ments":784,"ÃĤÅĤ":785,"St":786,"ÄłQ":787,"isc":788,"ase":789,"els":790,"ome":791,"uth":792,"Äłwh":793,"ower":794,"ÄłEn":795,"ST":796,"ness":797,"ym":798,"yp":799,"ale":800,"ade":801,"ays":802,"ized":803,"10":804,"Äłsur":805,"ame":806,"Äłdisc":807,"EN":808,"duc":809,"ger":810,"mer":811,"oh":812,"sy":813,"Äły":814,"ines":815,"ener":816,"rop":817,"Äłdep":818,"asc":819,"Äłtra":820,"ÄłUn":821,"****":822,"Ch":823,"OR":824,"eh":825,"ged":826,"ient":827,"ium":828,"vis":829,"Â¯":830,"ene":831,"Äłcor":832,"ÄłSc":833,"Äłstr":834,"ool":835,"port":836,"arr":837,"Äłsw":838,"ics":839,"Äłreg":840,"let":841,"urs":842,"ular":843,"ount":844,"ific":845,"Äłacc":846,"ency":847,"lect":848,"par":849,"Äłap":850,"Äłatt":851,"ree":852,"reat":853,"itch":854,"Äłman":855,"ÄłPl":856,"Äłne":857,"tics":858,"ards":859,"iew":860,"........":861,"less":862,"Â©":863,"rem":864,"Äłdist":865,"ÄłMar":866,"ott":867,"Äłgl":868,"ump":869,"25":870,"40":871,"ai":872,"aus":873,"augh":874,"ble":875,"tis":876,"ited":877,"ÄłPh":878,"Äłinv":879,"ose":880,"Äłgu":881,"ES":882,"med":883,"Äłag":884,"Äłcol":885,"ret":886,"riv":887,"raw":888,"rain":889,"Äłconf":890,"tical":891,"15":892,"16":893,"AL":894,"au":895,"oul":896,"ren":897,"ran":898,"Â¦":899,"ÄłÃ":900,"Äłup":901,"Äłsk":902,"Äłpres":903,"ically":904,"uss":905,"ett":906,"rip":907,"ÄłBl":908,"ational":909,"Ã¢Ä¢":910,"30":911,"AN":912,"ole":913,"ris":914,"ari":915,"ÄłTr":916,"oth":917,"ipp":918,"Ã£Ä¥Ä":919,"LE":920,"aun":921,"ction":922,"ht":923,"ield":924,"oin":925,"ough":926,"ues":927,"yl":928,"Äłti":929,"Äłsm":930,"rom":931,"Äłrem":932,"ages":933,"Äłev":934,"press":935,"Ã¢Ä¢Ä¶":936,"12":937,"14":938,"17":939,"ced":940,"mit":941,"Â½":942,"err":943,"alk":944,"reg":945,"ream":946,"tif":947,"ently":948,"ÄłMc":949,"emb":950,"ute":951,"ots":952,"oph":953,"plic":954,"ffic":955,"iber":956,"----------------":957,"13":958,"50":959,"AS":960,"ave":961,"con":962,"jec":963,"pir":964,"Äłent":965,"ered":966,"ately":967,"orth":968,"Äłcar":969,"roll":970,"ung":971,"apt":972,"ubl":973,"ugg":974,"ished":975,"80":976,"IC":977,"IT":978,"eed":979,"gan":980,"rew":981,"read":982,"Äłdes":983,"unn":984,"ily":985,"eck":986,"Äłinf":987,"ows":988,"29":989,"33":990,"70":991,"An":992,"bs":993,"for":994,"son":995,"ÄłX":996,"ery":997,"Äłdi":998,"ured":999,"omin":1000,"ÄłAc":1001,"Äłret":1002,"ograph":1003,"ivers":1004,"ize":1005,"++":1006,"24":1007,"26":1008,"ean":1009,"hip":1010,"ke":1011,"erc":1012,"ere":1013,"Äłcr":1014,"leg":1015,"Äłdem":1016,"ask":1017,"Äłbr":1018,"ÄłAm":1019,"ray":1020,"ÄłRe":1021,"tered":1022,"Äłgr":1023,"Äłunder":1024,"aking":1025,"??":1026,"Th":1027,"den":1028,"oon":1029,"vent":1030,"Â¿":1031,"erg":1032,"ald":1033,"ties":1034,"round":1035,"urg":1036,"Äłmod":1037,"erson":1038,"irc":1039,"ÄłGu":1040,"Äłexpl":1041,"Ã¢Ä¸":1042,"Äłspec":1043,"Äłemb":1044,"27":1045,"28":1046,"60":1047,"OU":1048,"bo":1049,"by":1050,"now":1051,"oad":1052,"arch":1053,"Äłpr":1054,"Äłdet":1055,"ÄłCol":1056,"rag":1057,"ably":1058,"occ":1059,"very":1060,"here":1061,"ext":1062,"ology":1063,"________":1064,"AC":1065,"IS":1066,"aim":1067,"ior":1068,"mon":1069,"vel":1070,"Â£":1071,"Äłel":1072,"Äłend":1073,"ators":1074,"Äłcal":1075,"Äłpol":1076,"ital":1077,"itor":1078,"Äłdel":1079,"Äłmin":1080,"amm":1081,"ÄłPar":1082,"ability":1083,"ÄłFl":1084,"cep":1085,"Äłred":1086,"que":1087,"ÄłIm":1088,"ives":1089,"66":1090,"hib":1091,"ky":1092,"pan":1093,"rup":1094,"sec":1095,"way":1096,"ward":1097,"zz":1098,"Äłas":1099,"Äłcur":1100,"Äłdev":1101,"omb":1102,"Äłmon":1103,"ider":1104,"ched":1105,"Äłrep":1106,"agn":1107,"aps":1108,"Äłrest":1109,"ploy":1110,"Äłund":1111,"Äłexp":1112,"clud":1113,"ÃĤÅĤÃĤÅĤ":1114,"23":1115,"99":1116,"AM":1117,"ED":1118,"ID":1119,"line":1120,"off":1121,"sp":1122,"inal":1123,"aly":1124,"Äłcoun":1125,"ley":1126,"unt":1127,"add":1128,"cept":1129,"opp":1130,"ands":1131,"ending":1132,"Äłext":1133,"ourn":1134,"0000":1135,"ences":1136,"ances":1137,"\\\\":1138,"be":1139,"day":1140,"iet":1141,"mun":1142,"miss":1143,"oes":1144,"ually":1145,"ying":1146,"Ã¦":1147,"Äª":1148,"Äłat":1149,"ones":1150,"arc":1151,"reas":1152,"Äłpat":1153,"itt":1154,"iter":1155,"ural":1156,"oms":1157,"Äłbe":1158,"ÄłBr":1159,"osp":1160,"ument":1161,"Äłleg":1162,"right":1163,"####":1164,"sych":1165,"35":1166,"OT":1167,"Pro":1168,"aj":1169,"aur":1170,"aid":1171,"ians":1172,"oid":1173,"uk":1174,"uro":1175,"~~":1176,"Â¼":1177,"Ä¢":1178,"ÄłÃ¢Ä":1179,"ined":1180,"ored":1181,"til":1182,"aster":1183,"ÄłSch":1184,"unk":1185,"acy":1186,"ÄłBe":1187,"ÄłRes":1188,"ÄłRec":1189,"Äłwe":1190,"ender":1191,"ips":1192,"ÄłOr":1193,"acks":1194,"Äłaff":1195,"ÄłInd":1196,"////":1197,"echn":1198,"ÃĥÄ¥ÃĥÄ¤ÃĥÄ¥ÃĥÄ¤ÃĥÄ¥ÃĥÄ¤ÃĥÄ¥ÃĥÄ¤":1199,"ÄłQu":1200,"Ã¢Ä¢Ä¶Ã¢Ä¢Ä¶":1201,"45":1202,"Com":1203,"En":1204,"aul":1205,"aff":1206,"br":1207,"oe":1208,"ved":1209,"view":1210,"yd":1211,"Ã©":1212,"Äłall":1213,"erm":1214,"ened":1215,"arb":1216,"ality":1217,"Äłsim":1218,"Äłpred":1219,"eless":1220,"ili":1221,"Äłbo":1222,"Äłbre":1223,"Äłmet":1224,"ÄłAb":1225,"ements":1226,"ides":1227,"rap":1228,"ches":1229,"ote":1230,"ÄłEm":1231,"Äłcond":1232,"Äłcontr":1233,"ateg":1234,"ends":1235,"ization":1236,"ange":1237,"Äłimp":1238,"load":1239,"11":1240,"200":1241,"37":1242,"EC":1243,"ET":1244,"Ex":1245,"ck":1246,"equ":1247,"fer":1248,"ging":1249,"get":1250,"gress":1251,"ham":1252,"li":1253,"put":1254,"wh":1255,"Ã¯":1256,"Äłenc":1257,"Äłocc":1258,"onn":1259,"ony":1260,"ana":1261,"Äłsec":1262,"ison":1263,"ised":1264,"Äłpo":1265,"lex":1266,"ÄłSl":1267,"uring":1268,"Äłbro":1269,"Äłthe":1270,"amb":1271,"ament":1272,"che":1273,"ode":1274,"akes":1275,"Äłprot":1276,"Äłoff":1277,"Äłann":1278,"time":1279,"ribut":1280,"36":1281,";;":1282,"OS":1283,"ces":1284,"een":1285,"iol":1286,"ld":1287,"mar":1288,"oft":1289,"val":1290,"yr":1291,"yth":1292,"ina":1293,"onom":1294,"edd":1295,"ature":1296,"arian":1297,"Äłcoll":1298,"rel":1299,"tig":1300,"ising":1301,"istic":1302,"Äłde":1303,"elf":1304,"ÄłCont":1305,"urr":1306,"use":1307,"Äłmo":1308,"Äłmis":1309,"ript":1310,"ÄłAp":1311,"raft":1312,"Äłhe":1313,"abor":1314,"ÄłLe":1315,"ope":1316,"ops":1317,"ody":1318,"ÄłWh":1319,"Äłprom":1320,"ively":1321,"ense":1322,"ains":1323,"ION":1324,"OL":1325,"OM":1326,"Un":1327,"bl":1328,"du":1329,"ject":1330,"rest":1331,"ux":1332,"Äłed":1333,"Äłec":1334,"Äłir":1335,"ening":1336,"arl":1337,"ared":1338,"Äłsn":1339,"Äłche":1340,"ross":1341,"Äłdo":1342,"ÄłCor":1343,"urd":1344,"ury":1345,"ilit":1346,"Äłback":1347,"Äłfr":1348,"Äłfac":1349,"Äłfil":1350,"ams":1351,"rif":1352,"ÄłAss":1353,"ÄłMan":1354,"erst":1355,"emp":1356,"ulation":1357,"Äłhand":1358,"ape":1359,"irt":1360,"ession":1361,"odd":1362,"ended":1363,"aint":1364,"ained":1365,"ified":1366,"ights":1367,"000":1368,"Äłaut":1369,"Äłresp":1370,"irect":1371,"ential":1372,"================":1373,"34":1374,"38":1375,"75":1376,"Ad":1377,"CH":1378,"IL":1379,"OD":1380,"Sh":1381,"cent":1382,"ms":1383,"of":1384,"ration":1385,"yst":1386,"Â«":1387,"ering":1388,"ather":1389,"aries":1390,"ories":1391,"Äłsol":1392,"Äłcirc":1393,"reen":1394,"icro":1395,"iting":1396,"Äłdown":1397,"ased":1398,"ÄłCons":1399,"usion":1400,"ustr":1401,"Äłbel":1402,"Äłmed":1403,"Äłform":1404,"rav":1405,"Äłhom":1406,"irl":1407,"oci":1408,"Äłneg":1409,"Äłvis":1410,"Äłvol":1411,"Äłprof":1412,"ude":1413,"ears":1414,"Äładd":1415,"outh":1416,"eek":1417,"uthor":1418,"65":1419,"AD":1420,"EM":1421,"back":1422,"cle":1423,"ih":1424,"iver":1425,"ler":1426,"ming":1427,"oint":1428,"ral":1429,"rist":1430,"uel":1431,"Ã§":1432,"Äłid":1433,"Äłill":1434,"Äłav":1435,"Äłcap":1436,"Äłpos":1437,"Äłpass":1438,"iction":1439,"ites":1440,"rog":1441,"Äłdr":1442,"Äłdeb":1443,"elop":1444,"Äłmar":1445,"Äłter":1446,"ided":1447,"Äłinst":1448,"ÄłReg":1449,"uts":1450,"Äłhum":1451,"Äłlo":1452,"ocr":1453,"anding":1454,"ÄłIs":1455,"uction":1456,"ticip":1457,"ouse":1458,"ously":1459,"elling":1460,"Äław":1461,"ortun":1462,"198":1463,"199":1464,"itive":1465,"ails":1466,"Äłkn":1467,"ike":1468,"overn":1469,"********":1470,"ublic":1471,"!!":1472,"39":1473,"44":1474,"77":1475,"EL":1476,"OW":1477,"iqu":1478,"itions":1479,"ki":1480,"ner":1481,"oti":1482,"uch":1483,"ze":1484,"Ã¤":1485,"Äłus":1486,"ention":1487,"atis":1488,"atter":1489,"Äłsal":1490,"Äłsign":1491,"Äłsyn":1492,"Äłcri":1493,"Äłpers":1494,"ices":1495,"Äłdiff":1496,"ases":1497,"ÄłST":1498,"ÄłSw":1499,"ÄłStr":1500,"acc":1501,"ÄłCo":1502,"urb":1503,"Äłbi":1504,"oli":1505,"Äłfin":1506,"amin":1507,"ames":1508,"ember":1509,"ident":1510,"ÄłRep":1511,"Äłrev":1512,"other":1513,"ÄłGl":1514,"ÄłEl":1515,"play":1516,"Äłuns":1517,"ogn":1518,"aker":1519,"udd":1520,"avor":1521,"Ã¢Ä¶":1522,"oke":1523,"Ã£Ä£":1524,"Äłchar":1525,"ÄłInt":1526,"Äładv":1527,"Äłanti":1528,"iously":1529,"fully":1530,"Äłorgan":1531,"ength":1532,"ould":1533,"))":1534,"68":1535,">>":1536,"AA":1537,"AP":1538,"Al":1539,"CT":1540,"cc":1541,"down":1542,"ein":1543,"iat":1544,"uild":1545,"uzz":1546,"Â§":1547,"Åĥ":1548,"Äłve":1549,"ero":1550,"onic":1551,"ests":1552,"atory":1553,"arth":1554,"orks":1555,"Äłsus":1556,"Äłsuc":1557,"requ":1558,"Äłpe":1559,"Äłpur":1560,"lev":1561,"Äłdiv":1562,"ÄłSup":1563,"unction":1564,"action":1565,"Äłmul":1566,"Äłte":1567,"Äłtro":1568,"Äłinfl":1569,"Äłhead":1570,"Äłgener":1571,"ÄłEd":1572,"ocks":1573,"Äłren":1574,"ension":1575,"alls":1576,"ours":1577,"resp":1578,"resent":1579,"ords":1580,"ordin":1581,"ship":1582,"rown":1583,"plement":1584,"Äłobs":1585,"ause":1586,"48":1587,"55":1588,"78":1589,"Ar":1590,"IG":1591,"Ph":1592,"ae":1593,"cons":1594,"gu":1595,"ges":1596,"gram":1597,"grad":1598,"lin":1599,"lish":1600,"ma":1601,"me":1602,"nec":1603,"ove":1604,"ycl":1605,"Â¢":1606,"Â³":1607,"Ã¨":1608,"Åģ":1609,"ÄłÃĤ":1610,"ara":1611,"Äłsqu":1612,"Äłcle":1613,"rec":1614,"ises":1615,"ision":1616,"Äłpsych":1617,"ication":1618,"Äłdesc":1619,"asting":1620,"ÄłSur":1621,"aces":1622,"urt":1623,"Äłben":1624,"Äłbeh":1625,"olution":1626,"Äłtw":1627,"amer":1628,"ries":1629,"ÄłMin":1630,"ÄłMon":1631,"ems":1632,"ulated":1633,"idd":1634,"raz":1635,"Äłreb":1636,"Äłhel":1637,"ime":1638,"iment":1639,"umm":1640,"ird":1641,"ired":1642,"ÄłFr":1643,"ÄłFor":1644,"Äłequ":1645,"ceed":1646,"esting":1647,"ÄłNe":1648,"ther":1649,"Äłprop":1650,"ief":1651,"eful":1652,"earch":1653,"ector":1654,"ancy":1655,"ustom":1656,"Äłeng":1657,"ological":1658,"vestig":1659,"ealth":1660,"Ã¥Ä":1661,"Ã¢Ä¶Ä¢":1662,"22":1663,"49":1664,"69":1665,"=-":1666,"Cl":1667,"RA":1668,"Tr":1669,"US":1670,"UT":1671,"VER":1672,"aud":1673,"cont":1674,"eep":1675,"fact":1676,"ha":1677,"hes":1678,"light":1679,"mod":1680,"ney":1681,"pet":1682,"ued":1683,"ving":1684,"Â¥":1685,"Â¸":1686,"Ä´":1687,"Äłu":1688,"Äłer":1689,"Äłver":1690,"Äłtim":1691,"inter":1692,"iness":1693,"erb":1694,"atal":1695,"arter":1696,"alt":1697,"inger":1698,"Äłsens":1699,"reed":1700,"ister":1701,"lement":1702,"itation":1703,"Äłdoc":1704,"aced":1705,"used":1706,"Äłtem":1707,"ether":1708,"etting":1709,"riend":1710,"ÄłPat":1711,"ÄłMed":1712,"ÄłBro":1713,"emin":1714,"emon":1715,"ids":1716,"osh":1717,"ÄłDis":1718,"umer":1719,"oper":1720,"ested":1721,"vertis":1722,"Äłnot":1723,"Äłunf":1724,"Äłval":1725,"epend":1726,"ived":1727,"ills":1728,"illing":1729,"ife":1730,"ift":1731,"Äłdiss":1732,"izing":1733,"resh":1734,"claim":1735,"Äłaccom":1736,"ailed":1737,"awn":1738,"lectr":1739,"Äłcontin":1740,"ports":1741,"entif":1742,"ertain":1743,"ENT":1744,"ÄłTrans":1745,"Ã¢Ä¸Äª":1746,"79":1747,"Im":1748,"OO":1749,"Sc":1750,"auc":1751,"bor":1752,"ball":1753,"cer":1754,"ij":1755,"ience":1756,"otion":1757,"sw":1758,"work":1759,"Â®":1760,"Äłi":1761,"Äłest":1762,"ÄłÃĤÅĤ":1763,"ino":1764,"erry":1765,"onstr":1766,"ena":1767,"eder":1768,"any":1769,"ores":1770,"orld":1771,"Äłsch":1772,"Äłsym":1773,"Äłcer":1774,"Äłcent":1775,"rep":1776,"itz":1777,"itting":1778,"rol":1779,"Äłden":1780,"Äłdest":1781,"ÄłSe":1782,"elt":1783,"acter":1784,"acts":1785,"ÄłCar":1786,"ils":1787,"ilities":1788,"olic":1789,"ama":1790,"amed":1791,"ette":1792,"adi":1793,"ried":1794,"ÄłPr":1795,"ÄłMor":1796,"ulate":1797,"ÄłRob":1798,"ÄłRev":1799,"uted":1800,"Äłhor":1801,"ÄłDef":1802,"aging":1803,"Äłgen":1804,"ires":1805,"irst":1806,"owed":1807,"ocal":1808,"Äłnew":1809,"ÄłNew":1810,"ples":1811,"tick":1812,"aks":1813,"ube":1814,"Äłexper":1815,"Äłprov":1816,"ept":1817,"ensive":1818,"illed":1819,"ibr":1820,"ibility":1821,"aving":1822,"rypt":1823,"encies":1824,"Äłimm":1825,"Äłappro":1826,"ING":1827,"................":1828,"59":1829,"88":1830,"AY":1831,"CL":1832,"IP":1833,"OP":1834,"Pl":1835,"Wh":1836,"bit":1837,"cing":1838,"do":1839,"hood":1840,"key":1841,"och":1842,"sk":1843,"uy":1844,"ule":1845,"uit":1846,"vir":1847,"war":1848,"xx":1849,"ype":1850,"Âº":1851,"Â¾":1852,"ÃĹ":1853,"Äłz":1854,"Äłes":1855,"inary":1856,"ese":1857,"atur":1858,"atives":1859,"ales":1860,"Äłcre":1861,"reh":1862,"tial":1863,"Äłple":1864,"Äłpop":1865,"roup":1866,"rough":1867,"ÄłSer":1868,"ÄłSim":1869,"uns":1870,"ÄłCal":1871,"iles":1872,"ilar":1873,"olid":1874,"Äłmark":1875,"Äłfe":1876,"ÄłAg":1877,"ÄłAt":1878,"ection":1879,"ected":1880,"lying":1881,"uls":1882,"iding":1883,"Äłinn":1884,"rab":1885,"Äłreal":1886,"ÄłTH":1887,"Äłhyp":1888,"igr":1889,"agon":1890,"umin":1891,"ÄłLeg":1892,"Äłep":1893,"Äłwith":1894,"Äłwork":1895,"ÄłId":1896,"istor":1897,"Äłstri":1898,"tically":1899,"iving":1900,"aining":1901,"Äłcompl":1902,"ells":1903,"anger":1904,"earing":1905,"anced":1906,"lection":1907,"Äłarch":1908,"igned":1909,"Äłplay":1910,"minist":1911,"ynam":1912,"Äłsubs":1913,"ported":1914,"ternal":1915,"Äłabs":1916,"ooth":1917,"Äłphot":1918,"Äłcommun":1919,"Ã§Ä":1920,").":1921,",\"":1922,"EE":1923,"II":1924,"Sp":1925,"bre":1926,"cul":1927,"gr":1928,"hem":1929,"iel":1930,"lig":1931,"oil":1932,"power":1933,"spec":1934,"ufact":1935,"ware":1936,"Â¤":1937,"Â±":1938,"Â¶":1939,"Â¹":1940,"Â»":1941,"ÃĲ":1942,"Äłrid":1943,"ining":1944,"ester":1945,"edia":1946,"arp":1947,"aring":1948,"arge":1949,"arily":1950,"alys":1951,"orts":1952,"order":1953,"Äłser":1954,"Äłcul":1955,"Äłpun":1956,"Äłport":1957,"Äłder":1958,"Äłdeter":1959,"asp":1960,"ason":1961,"ÄłCan":1962,"uses":1963,"Äłbas":1964,"Äłbeg":1965,"olar":1966,"Äłmor":1967,"Äłther":1968,"ads":1969,"ership":1970,"empl":1971,"ulf":1972,"Äłiniti":1973,"utter":1974,"ÄłTw":1975,"Äłhon":1976,"ÄłDe":1977,"ÄłDev":1978,"aged":1979,"otes":1980,"imb":1981,"Äłgrad":1982,"ume":1983,"aper":1984,"Äłlog":1985,"ÄłGr":1986,"owing":1987,"esty":1988,"Äłconc":1989,"Äłconv":1990,"Äłno":1991,"ÄłIN":1992,"isted":1993,"anted":1994,"Äłexc":1995,"...":1996,"ivid":1997,"ÄłOp":1998,"Äłcomb":1999,"Äłdisapp":2000,"oking":2001,"angu":2002,"ishing":2003,"itiz":2004,"Äładj":2005,"Äłimpro":2006,"Äłclass":2007,"Äłtrad":2008,"ashed":2009,"ission":2010,"onds":2011,"Äłprec":2012,"ÄłAng":2013,"itional":2014,"ÄłProt":2015,"ouch":2016,"Äłoper":2017,"Äłphys":2018,"titution":2019,"Äłamb":2020,"ification":2021,"nowled":2022,"________________":2023,"ception":2024,"viron":2025,"47":2026,"::":2027,"@@":2028,"BC":2029,"FF":2030,"HA":2031,"IR":2032,"PS":2033,"UL":2034,"UR":2035,"ait":2036,"aut":2037,"ault":2038,"col":2039,"cast":2040,"ees":2041,"gg":2042,"iam":2043,"ios":2044,"ially":2045,"lim":2046,"mp":2047,"my":2048,"oice":2049,"rug":2050,"ser":2051,"ster":2052,"tes":2053,"utions":2054,"Â¡":2055,"Âµ":2056,"Ãĺ":2057,"ÃĻ":2058,"Äłri":2059,"Äłens":2060,"Äłesc":2061,"ince":2062,"inder":2063,"esh":2064,"eness":2065,"anks":2066,"ares":2067,"alf":2068,"ali":2069,"Äłsle":2070,"Äłsil":2071,"Äłster":2072,"Äłsum":2073,"Äłserv":2074,"rey":2075,"isl":2076,"Äłpen":2077,"Äłpri":2078,"Äłpart":2079,"icks":2080,"itness":2081,"asts":2082,"ÄłSec":2083,"ÄłSub":2084,"acted":2085,"ÄłCr":2086,"enth":2087,"uster":2088,"iling":2089,"oman":2090,"Äłme":2091,"Äłmem":2092,"Äłmill":2093,"Äłtri":2094,"Äłtechn":2095,"Äłfund":2096,"aming":2097,"eters":2098,"rie":2099,"rimin":2100,"ÄłPer":2101,"ÄłPal":2102,"ÄłPres":2103,"ÄłAll":2104,"ÄłMod":2105,"ÄłBre":2106,"emy":2107,"idel":2108,"ÄłRel":2109,"ÄłRef":2110,"utt":2111,"Äłrequ":2112,"ÄłDes":2113,"Äłgo":2114,"umber":2115,"ÄłHe":2116,"Äłlim":2117,"Äłland":2118,"irm":2119,"irth":2120,"ÄłGe":2121,"owers":2122,"vert":2123,"ander":2124,"ayer":2125,"aying":2126,"Äłstat":2127,"aked":2128,"antly":2129,"epar":2130,"ivil":2131,"ÄłOb":2132,"Äłovers":2133,"ibly":2134,"ÄłJud":2135,"ify":2136,"Äłdisp":2137,"elled":2138,"acked":2139,"acking":2140,"izz":2141,"oked":2142,"anged":2143,"197":2144,"ÄłUS":2145,"ÄłIns":2146,"ÄłInter":2147,"exual":2148,"iance":2149,"clus":2150,"Äłacqu":2151,"Äłactiv":2152,"ials":2153,"print":2154,"inds":2155,"inding":2156,"aching":2157,"ocking":2158,"sequ":2159,"ashing":2160,"berg":2161,"lood":2162,"yster":2163,"ÄłAnd":2164,"airs":2165,"vention":2166,"struct":2167,"ÄłArch":2168,"Äłsuper":2169,"weet":2170,"ohn":2171,"ropri":2172,"Äłneigh":2173,"medi":2174,"ription":2175,"--------------------------------":2176,"board":2177,"mission":2178,"atisf":2179,"Äłsusp":2180,"Ã¢Ä¶Ä¢Ã¢Ä¶Ä¢":2181,"\":":2182,"),":2183,",,":2184,"46":2185,"58":2186,"Ac":2187,"CE":2188,"Col":2189,"Cont":2190,"GG":2191,"IF":2192,"IM":2193,"OC":2194,"Qu":2195,"Rep":2196,"aver":2197,"ek":2198,"ford":2199,"fect":2200,"gh":2201,"hold":2202,"iec":2203,"ients":2204,"kins":2205,"lor":2206,"mm":2207,"pat":2208,"ror":2209,"ront":2210,"tor":2211,"tra":2212,"vil":2213,"vest":2214,"word":2215,"ways":2216,"wards":2217,"ye":2218,"Â¨":2219,"Ãİ":2220,"Ä¤":2221,"Ä§":2222,"Ä³":2223,"Äº":2224,"ÄŃ":2225,"Äłon":2226,"Äłing":2227,"Äłis":2228,"Äłang":2229,"Äłign":2230,"onder":2231,"onym":2232,"ata":2233,"oring":2234,"orrow":2235,"ingu":2236,"Äłcour":2237,"Äłcamp":2238,"Äłcele":2239,"reet":2240,"rect":2241,"tition":2242,"isher":2243,"Äłposs":2244,"Äłprac":2245,"icate":2246,"icted":2247,"ither":2248,"room":2249,"Äłdele":2250,"ÄłSal":2251,"une":2252,"olf":2253,"olt":2254,"oly":2255,"oler":2256,"older":2257,"Äłmer":2258,"Äłmicro":2259,"Äłtax":2260,"ÄłPre":2261,"ÄłAf":2262,"ects":2263,"ective":2264,"ÄłBar":2265,"ÄłBel":2266,"ules":2267,"idence":2268,"Äłincom":2269,"raf":2270,"rave":2271,"ÄłRE":2272,"utes":2273,"Äłrepe":2274,"ÄłThe":2275,"Äłher":2276,"Äłhar":2277,"ÄłDem":2278,"abb":2279,"ables":2280,"ags":2281,"ager":2282,"Äłge":2283,"umn":2284,"uman":2285,"ÄłHar":2286,"Äłloc":2287,"Äłlaw":2288,"Äłelect":2289,"stein":2290,"Äłunl":2291,"ogue":2292,"akers":2293,"Äłviol":2294,"Äłexec":2295,"eph":2296,"ival":2297,"aves":2298,"aven":2299,"mental":2300,"ÄłVal":2301,"alling":2302,"iev":2303,"eller":2304,"ighting":2305,"head":2306,"Ã£Ä¢Ä":2307,"Ã£Ä£Ä":2308,"anging":2309,"Äłaf":2310,"Äłair":2311,"Äłaud":2312,"Äłshort":2313,"190":2314,"aste":2315,"ording":2316,"ocket":2317,"outs":2318,"bert":2319,"comm":2320,"Äłrob":2321,"Äłprem":2322,"Äłqual":2323,"oooo":2324,"pose":2325,"ooks":2326,"pped":2327,"cipl":2328,"ÄłPhil":2329,"ranch":2330,"ipped":2331,"++++":2332,"ÃĤÅĤÃĤÅĤÃĤÅĤÃĤÅĤ":2333,"ournal":2334,"\\\\\\\\":2335,"########":2336,"~~~~":2337,"////////":2338,"ÃĥÄ¥ÃĥÄ¤ÃĥÄ¥ÃĥÄ¤ÃĥÄ¥ÃĥÄ¤ÃĥÄ¥ÃĥÄ¤ÃĥÄ¥ÃĥÄ¤ÃĥÄ¥ÃĥÄ¤ÃĥÄ¥ÃĥÄ¤ÃĥÄ¥ÃĥÄ¤":2339,"Ã¢Ä¢Ä¶Ã¢Ä¢Ä¶Ã¢Ä¢Ä¶Ã¢Ä¢Ä¶":2340,"Ã©Ä":2341,"Äłoccup":2342,"ystem":2343,"=-=-":2344,"Ã¢Ä¸ÄªÃ¢Ä¸Äª":2345,"ÄłÃĤÅĤÄłÃĤÅĤ":2346,"\"\"":2347,"''":2348,");":2349,"21":2350,"67":2351,"AG":2352,"IA":2353,"On":2354,"PR":2355,"Res":2356,"SP":2357,"TS":2358,"UM":2359,"UN":2360,"co":2361,"cre":2362,"ever":2363,"field":2364,"go":2365,"ground":2366,"hab":2367,"men":2368,"met":2369,"mark":2370,"oz":2371,"pre":2372,"ring":2373,"sl":2374,"top":2375,"ua":2376,"uil":2377,"uous":2378,"well":2379,"ycle":2380,"Â¬":2381,"Â°":2382,"Â·":2383,"ÃĦ":2384,"Ãł":2385,"Ä¦":2386,"Ä±":2387,"Äłide":2388,"iny":2389,"ination":2390,"erence":2391,"erman":2392,"estion":2393,"ano":2394,"arant":2395,"alle":2396,"orted":2397,"Äłso":2398,"Äłsem":2399,"Äłsoc":2400,"Äłsepar":2401,"Äłcred":2402,"Äłcann":2403,"rection":2404,"isp":2405,"Äłpay":2406,"Äłprim":2407,"Äłpriv":2408,"ici":2409,"itter":2410,"ros":2411,"Äłdig":2412,"asing":2413,"asion":2414,"astic":2415,"ÄłSm":2416,"under":2417,"acing":2418,"ache":2419,"ental":2420,"urch":2421,"iled":2422,"omm":2423,"Äłbar":2424,"Äłbul":2425,"olit":2426,"Äłfer":2427,"Äłfire":2428,"Äłfoot":2429,"rial":2430,"riev":2431,"ÄłPe":2432,"ÄłAs":2433,"ÄłApp":2434,"ÄłMet":2435,"ÄłBo":2436,"ulations":2437,"idn":2438,"Äłinform":2439,"Äłinvestig":2440,"ÄłRem":2441,"Äłrein":2442,"Äłrepl":2443,"oses":2444,"ÄłTe":2445,"ÄłTer":2446,"ÄłTra":2447,"Äłhard":2448,"Äłhigh":2449,"Äłhapp":2450,"ÄłDisc":2451,"abin":2452,"ablish":2453,"ague":2454,"oto":2455,"otal":2456,"imal":2457,"Äłgovern":2458,"Äłlab":2459,"Äłlif":2460,"Äłliber":2461,"Äłeff":2462,"Äłwr":2463,"Äłwid":2464,"ÄłEr":2465,"opy":2466,"anded":2467,"andom":2468,"ods":2469,"ÄłWe":2470,"Äłstar":2471,"Äłstand":2472,"Äłunb":2473,"aken":2474,"Äłextr":2475,"Äłproduc":2476,"eps":2477,"illa":2478,"ellig":2479,"ellow":2480,"ource":2481,"try":2482,"oken":2483,"Äłauthor":2484,"orse":2485,"Äładvis":2486,"clos":2487,"enced":2488,"Äłimag":2489,"Äłjud":2490,"aches":2491,"ached":2492,"irec":2493,"ocked":2494,"attle":2495,"come":2496,"ribe":2497,"ample":2498,"Äłsubsc":2499,"ounds":2500,"Äłinteg":2501,"Äłoptim":2502,"pping":2503,"ritt":2504,"atched":2505,"RES":2506,"eason":2507,"Äłdecl":2508,"echan":2509,"inking":2510,"pected":2511,"inner":2512,"meric":2513,"vision":2514,"aughter":2515,"ipping":2516,"aunch":2517,"ÄłMcC":2518,"And":2519,"ÄłAcc":2520,"ography":2521,"Äłprinc":2522,"ragon":2523,"secut":2524,"Äłbroad":2525,"Äłdoub":2526,"Äłautom":2527,"Äłmulti":2528,".\"":2529,"57":2530,"App":2531,"Att":2532,"Bl":2533,"CC":2534,"CS":2535,"It":2536,"PL":2537,"Par":2538,"SE":2539,"TH":2540,"UD":2541,"VE":2542,"ao":2543,"aire":2544,"aign":2545,"box":2546,"burg":2547,"da":2548,"de":2549,"ds":2550,"dom":2551,"eff":2552,"fort":2553,"gn":2554,"gin":2555,"greg":2556,"hus":2557,"ius":2558,"iers":2559,"iant":2560,"joy":2561,"kin":2562,"nes":2563,"ning":2564,"pon":2565,"sm":2566,"uing":2567,"uation":2568,"uate":2569,"xy":2570,"yan":2571,"Âª":2572,"Â´":2573,"Ä¯":2574,"Äłrig":2575,"Äłeth":2576,"inem":2577,"era":2578,"erk":2579,"ona":2580,"onald":2581,"esis":2582,"eds":2583,"anes":2584,"ania":2585,"ato":2586,"arre":2587,"arks":2588,"ora":2589,"oral":2590,"ority":2591,"orge":2592,"inging":2593,"Äłsac":2594,"Äłstim":2595,"Äłsaf":2596,"Äłsuff":2597,"Äłcan":2598,"reens":2599,"tice":2600,"tives":2601,"Äłped":2602,"Äłpain":2603,"Äłpoll":2604,"Äłpost":2605,"icip":2606,"ications":2607,"lean":2608,"lear":2609,"roy":2610,"roid":2611,"Äłdon":2612,"Äłded":2613,"Äłdri":2614,"Äłdomin":2615,"asy":2616,"ÄłSn":2617,"ÄłSom":2618,"eler":2619,"unch":2620,"unte":2621,"ÄłCL":2622,"ÄłChe":2623,"ione":2624,"uration":2625,"omet":2626,"Äłbur":2627,"ols":2628,"oles":2629,"olly":2630,"olph":2631,"olves":2632,"Äłmel":2633,"Äłmur":2634,"Äłmut":2635,"Äłmos":2636,"Äłmag":2637,"Äłmass":2638,"Äłmeas":2639,"Äłfam":2640,"ety":2641,"ades":2642,"ading":2643,"rief":2644,"ÄłPet":2645,"ÄłAS":2646,"ÄłAtt":2647,"ÄłMil":2648,"ÄłMad":2649,"ÄłBul":2650,"empt":2651,"idents":2652,"Äłinj":2653,"Äłintr":2654,"Äłintim":2655,"ÄłReb":2656,"uter":2657,"utch":2658,"Äłrece":2659,"oster":2660,"Äłharm":2661,"ÄłDo":2662,"ÄłDet":2663,"ÄłDep":2664,"abled":2665,"igg":2666,"agger":2667,"ota":2668,"imum":2669,"Äłgra":2670,"ÄłHaw":2671,"Äłlic":2672,"Äłlist":2673,"Äłlob":2674,"Äłlik":2675,"ÄłFin":2676,"ÄłLev":2677,"Äłelectr":2678,"Äłwa":2679,"ÄłEth":2680,"ocation":2681,"stant":2682,"stall":2683,"odes":2684,"ÄłNic":2685,"plom":2686,"place":2687,"Äłstud":2688,"ucks":2689,"Äłunc":2690,"Äłvers":2691,"Äłview":2692,"ipe":2693,"ÄłKn":2694,"illion":2695,"ÄłVol":2696,"ega":2697,"phas":2698,"Äłspr":2699,"rying":2700,"ÄłUs":2701,"ormal":2702,"Äłanaly":2703,"oving":2704,"icked":2705,"Äłclos":2706,"Äłscr":2707,"lected":2708,"Äłemploy":2709,"aze":2710,"Äłrecogn":2711,"produc":2712,"porting":2713,"Äłconstit":2714,"ounded":2715,"ounding":2716,"posed":2717,"eather":2718,"Ind":2719,"Int":2720,"Äłphil":2721,"ÄłExpl":2722,"Äłorig":2723,"ride":2724,"ridge":2725,"Äłincor":2726,"Äłtransl":2727,"umbn":2728,"Äłrap":2729,"inning":2730,"lands":2731,"atically":2732,"ÄłEng":2733,"Äłsurv":2734,"ools":2735,"ought":2736,"rome":2737,"error":2738,"alking":2739,"plication":2740,"jects":2741,"unning":2742,"Äłspecial":2743,"Äłcounter":2744,"opping":2745,";;;;":2746,"Äłcollabor":2747,"Äłeconom":2748,"Äłrespons":2749,"Äłobserv":2750,"Äłbenef":2751,"Äłbehav":2752,"Äłutil":2753,"43":2754,"90":2755,"95":2756,"CP":2757,"EG":2758,"FO":2759,"FT":2760,"GB":2761,"IST":2762,"Le":2763,"OG":2764,"Or":2765,"PD":2766,"Rec":2767,"Reg":2768,"TC":2769,"UG":2770,"Us":2771,"XT":2772,"aith":2773,"bro":2774,"bid":2775,"bour":2776,"ea":2777,"eel":2778,"fig":2779,"face":2780,"gl":2781,"gers":2782,"het":2783,"ias":2784,"iest":2785,"ique":2786,"ls":2787,"lan":2788,"oud":2789,"po":2790,"pect":2791,"pret":2792,"rate":2793,"rated":2794,"sel":2795,"set":2796,"vant":2797,"vail":2798,"zen":2799,"Ãĳ":2800,"Ä¶":2801,"Ä¼":2802,"Ä¾":2803,"Äłant":2804,"Äłack":2805,"Äłiss":2806,"iner":2807,"inth":2808,"inity":2809,"eral":2810,"erve":2811,"erts":2812,"estern":2813,"enz":2814,"ani":2815,"anti":2816,"atin":2817,"atively":2818,"orp":2819,"Äłsu":2820,"Äłsett":2821,"Äłsugg":2822,"Äłcro":2823,"Äłcand":2824,"Äłcapt":2825,"Äłcustom":2826,"tire":2827,"isk":2828,"Äłpal":2829,"Äłpot":2830,"Äłpress":2831,"Äłpurs":2832,"Äłperson":2833,"icial":2834,"icient":2835,"itted":2836,"itors":2837,"roduc":2838,"rodu":2839,"Äłdam":2840,"Äłdim":2841,"Äłdeg":2842,"Äłdraw":2843,"asted":2844,"ÄłSk":2845,"ÄłShe":2846,"ÄłSci":2847,"unc":2848,"acle":2849,"acting":2850,"active":2851,"ÄłCre":2852,"ÄłCent":2853,"ÄłCap":2854,"ÄłCour":2855,"ÄłCON":2856,"ented":2857,"ura":2858,"urer":2859,"urity":2860,"usc":2861,"using":2862,"usted":2863,"omes":2864,"omen":2865,"Äłbal":2866,"Äłbull":2867,"Äłbomb":2868,"olk":2869,"olved":2870,"Äłmen":2871,"Äłmid":2872,"Äłmir":2873,"Äłmess":2874,"Äłmort":2875,"Äłmob":2876,"Äłmeth":2877,"Äłtre":2878,"Äłtac":2879,"Äłturn":2880,"Äłtyp":2881,"Äłfre":2882,"Äłfav":2883,"Äłfix":2884,"eting":2885,"ado":2886,"rian":2887,"rition":2888,"ÄłPR":2889,"ÄłPan":2890,"ÄłPass":2891,"ÄłPsych":2892,"ÄłAT":2893,"ÄłAth":2894,"ÄłMo":2895,"ÄłMer":2896,"ÄłBur":2897,"ula":2898,"ulti":2899,"ults":2900,"Äłinstr":2901,"ÄłRo":2902,"ÄłRed":2903,"Äłread":2904,"osis":2905,"osts":2906,"ÄłTor":2907,"ÄłTro":2908,"Äłhur":2909,"Äłhear":2910,"ÄłDel":2911,"ÄłDec":2912,"ÄłDoc":2913,"ÄłDeb":2914,"otor":2915,"imate":2916,"Äłgro":2917,"ums":2918,"uments":2919,"apter":2920,"ÄłHel":2921,"ÄłHigh":2922,"Äłey":2923,"vey":2924,"ÄłGo":2925,"ÄłEv":2926,"Äłconver":2927,"anda":2928,"andon":2929,"ston":2930,"Äłrad":2931,"quer":2932,"Äłnon":2933,"Äłnut":2934,"ÄłIt":2935,"isting":2936,"istry":2937,"istance":2938,"pload":2939,"enders":2940,"Äłunw":2941,"Äłvac":2942,"Äłvari":2943,"ubb":2944,"uble":2945,"upp":2946,"ups":2947,"Äłexpress":2948,"uge":2949,"ugs":2950,"Äłprob":2951,"Äłprogress":2952,"Äłprogram":2953,"ÄłOn":2954,"ensions":2955,"iller":2956,"avy":2957,"alled":2958,"alleng":2959,"answ":2960,"Äłcomment":2961,"acker":2962,"ources":2963,"tract":2964,"izes":2965,"anges":2966,"Äłspe":2967,"Äłspir":2968,"Äłauth":2969,"efore":2970,"196":2971,"ÄłUN":2972,"ÄłUl":2973,"ÄłInc":2974,"Äłach":2975,"even":2976,"evelop":2977,"apped":2978,"apping":2979,"ews":2980,"oves":2981,"oved":2982,"prising":2983,"eys":2984,"ebook":2985,"redd":2986,"times":2987,"actor":2988,"oys":2989,"loom":2990,"rict":2991,"Äłcompos":2992,"yss":2993,"rows":2994,"rowing":2995,"ribed":2996,"ribution":2997,"ampion":2998,"mination":2999,"olds":3000,"ync":3001,"azing":3002,"anned":3003,"ÄłAnn":3004,"rame":3005,"ÄłProv":3006,"Äłparticip":3007,"ultural":3008,"ÄłCommun":3009,"Äłperform":3010,"position":3011,"ÄłSpec":3012,"eats":3013,"atching":3014,"arning":3015,"formation":3016,"Äłsequ":3017,"Äłrefer":3018,"Äłappl":3019,"Äłmanif":3020,"ÄłPlay":3021,"blem":3022,"conom":3023,"eeds":3024,"Äłdesign":3025,"ographic":3026,"Äłdemonstr":3027,"Äłgrand":3028,"????":3029,"ergy":3030,"rupt":3031,"Äłdevelop":3032,"iety":3033,"Äłannoun":3034,"Äłeduc":3035,"================================":3036,"Äłcircum":3037,"Äłnegoti":3038,"Äłidentif":3039,"ortunately":3040,"Äłdiffer":3041,"Äłsuccess":3042,"iece":3043,"ville":3044,"Äłcelebr":3045,"-+":3046,"89":3047,"</":3048,"Am":3049,"Ass":3050,"BS":3051,"Con":3052,"Conn":3053,"DE":3054,"EO":3055,"EW":3056,"FC":3057,"Fl":3058,"HT":3059,"Hz":3060,"Mar":3061,"Mag":3062,"NT":3063,"PG":3064,"SA":3065,"Sec":3066,"TR":3067,"XX":3068,"bi":3069,"bon":3070,"cel":3071,"cest":3072,"cell":3073,"cious":3074,"des":3075,"duct":3076,"draw":3077,"effic":3078,"fe":3079,"gor":3080,"hel":3081,"iy":3082,"ien":3083,"iro":3084,"ira":3085,"iable":3086,"kn":3087,"kes":3088,"lu":3089,"lic":3090,"liv":3091,"ml":3092,"most":3093,"ois":3094,"otic":3095,"pd":3096,"ply":3097,"pass":3098,"path":3099,"point":3100,"rick":3101,"ruct":3102,"sen":3103,"side":3104,"uals":3105,"uke":3106,"viously":3107,"wind":3108,"{\"":3109,"°Åģ":3110,"Â²":3111,"Ãı":3112,"Ä²":3113,"Äłic":3114,"Äłur":3115,"Äłom":3116,"Äłess":3117,"Äłath":3118,"Äłown":3119,"Äłasc":3120,"inks":3121,"enge":3122,"anet":3123,"anity":3124,"atural":3125,"arity":3126,"arted":3127,"arry":3128,"arious":3129,"alized":3130,"org":3131,"orial":3132,"organ":3133,"Äłsat":3134,"Äłsor":3135,"Äłsti":3136,"Äłsit":3137,"Äłsom":3138,"Äłsid":3139,"Äłspl":3140,"Äłcat":3141,"Äłcas":3142,"Äłcart":3143,"Äłcanc":3144,"Äłcreat":3145,"Äłcrypt":3146,"Äłcivil":3147,"real":3148,"repr":3149,"reci":3150,"tile":3151,"Äłpack":3152,"Äłpath":3153,"Äłpric":3154,"Äłpower":3155,"icul":3156,"lets":3157,"ita":3158,"itect":3159,"itely":3160,"itual":3161,"itarian":3162,"Äłdu":3163,"Äłdeal":3164,"Äłdict":3165,"astern":3166,"ÄłSu":3167,"ÄłSat":3168,"ÄłSil":3169,"ÄłSam":3170,"ÄłSpe":3171,"ellect":3172,"unicip":3173,"acher":3174,"ÄłCur":3175,"enty":3176,"usiness":3177,"illy":3178,"Äłbet":3179,"Äłball":3180,"Äłbatt":3181,"Äłbrew":3182,"olis":3183,"Äłmat":3184,"Äłmus":3185,"Äłmist":3186,"Äłmath":3187,"Äłmiss":3188,"Äłmisc":3189,"Äłmean":3190,"Äłmagn":3191,"Äłmaj":3192,"Äłmechan":3193,"Äłto":3194,"Äłtur":3195,"Äłteas":3196,"Äłtele":3197,"Äłfle":3198,"Äłfur":3199,"Äłflo":3200,"Äłfoll":3201,"Äłfasc":3202,"Äłfrag":3203,"ador":3204,"adem":3205,"adow":3206,"rive":3207,"ÄłPri":3208,"ÄłPers":3209,"ÄłPort":3210,"ÄłAD":3211,"ÄłAN":3212,"ÄłAlex":3213,"ÄłMe":3214,"ÄłMal":3215,"ÄłMel":3216,"ÄłMac":3217,"ÄłMus":3218,"ÄłMag":3219,"ÄłMay":3220,"ÄłMiss":3221,"ÄłMark":3222,"ÄłMich":3223,"ecess":3224,"ÄłBas":3225,"eme":3226,"emed":3227,"employ":3228,"ulner":3229,"iders":3230,"Äłintern":3231,"Äłinhib":3232,"ÄłRom":3233,"ÄłRet":3234,"ÄłRod":3235,"uten":3236,"uther":3237,"utting":3238,"chant":3239,"chron":3240,"Äłrecomm":3241,"osen":3242,"ÄłTit":3243,"ÄłTrad":3244,"ÄłTechn":3245,"Äłhy":3246,"Äłhop":3247,"ÄłDr":3248,"ÄłDam":3249,"abe":3250,"aby":3251,"abil":3252,"abet":3253,"ago":3254,"agement":3255,"otyp":3256,"---":3257,"imm":3258,"Äłground":3259,"umes":3260,"uming":3261,"aph":3262,"ÄłHer":3263,"ÄłHon":3264,"Äłline":3265,"Äłlong":3266,"irty":3267,"irgin":3268,"essed":3269,"ÄłLiber":3270,"Äłwar":3271,"Äłwor":3272,"Äłwors":3273,"Äłwater":3274,"ÄłGener":3275,"ÄłGreen":3276,"ÄłEll":3277,"Äłconst":3278,"verage":3279,"stan":3280,"Äłrac":3281,"odox":3282,"ÄłIS":3283,"ÄłIll":3284,"ÄłWH":3285,"ÄłWill":3286,"ths":3287,"throp":3288,"pled":3289,"Äłste":3290,"uccess":3291,"Äłunivers":3292,"ogg":3293,"ogs":3294,"ogy":3295,"Äłvig":3296,"ipher":3297,"Äłexhib":3298,"arded":3299,"arding":3300,"Äłpros":3301,"Äłprocess":3302,"Äłprohib":3303,"eping":3304,"ÄłOw":3305,"Äłoffic":3306,"ava":3307,"aval":3308,"ÄłVer":3309,"allow":3310,"ieve":3311,"oung":3312,"ounter":3313,"ÄłJul":3314,"ifer":3315,"Äłdism":3316,"ella":3317,"ellar":3318,"hetic":3319,"oured":3320,"okes":3321,"angel":3322,"phone":3323,"Äłshow":3324,"195":3325,"Äłchem":3326,"Äłcheck":3327,"obe":3328,"ÄłInf":3329,"astro":3330,"orms":3331,"Äładm":3332,"Äładminist":3333,"geon":3334,"ÄłChrist":3335,"Äłaccess":3336,"pert":3337,"Äłany":3338,"encing":3339,"ÄłStud":3340,"ancing":3341,"ustain":3342,"icking":3343,"Äłclin":3344,"undred":3345,"Äłresid":3346,"Äłreserv":3347,"aws":3348,"Äłju":3349,"Äłjus":3350,"lections":3351,"Äłarr":3352,"iki":3353,"ashes":3354,"ashion":3355,"Äłthr":3356,"Äłenh":3357,"ships":3358,"intend":3359,"rich":3360,"rics":3361,"Äłcompe":3362,"Äłprefer":3363,"ribute":3364,"Äłcoordin":3365,"prof":3366,"Äłflu":3367,"ulture":3368,"anked":3369,"anking":3370,"arms":3371,"arming":3372,"Äłperpet":3373,"inct":3374,"ÄłAlb":3375,"oods":3376,"ÄłArm":3377,"Äłindic":3378,"riter":3379,"atches":3380,"verse":3381,"ÄłExt":3382,"ruit":3383,"afe":3384,"Äłobjec":3385,"Äłtransform":3386,"rime":3387,"Äłdefin":3388,"Äłforg":3389,"umble":3390,"ween":3391,"ÄłAdd":3392,"racy":3393,"tively":3394,"Äłregul":3395,"Äłapolog":3396,"Äłmanufact":3397,"Äłneed":3398,"reme":3399,"otten":3400,"aught":3401,"Äłcolon":3402,"rained":3403,"ALL":3404,"ussion":3405,"othing":3406,"oints":3407,"Äłeval":3408,"pression":3409,"mitt":3410,"mitted":3411,"ASS":3412,"Äłenthus":3413,"orthy":3414,"unny":3415,"Äłmoder":3416,"OUR":3417,"Äłpolic":3418,"ceptions":3419,"Äłastr":3420,"Äłrepresent":3421,"Äłunderst":3422,"clude":3423,"cludes":3424,"cluding":3425,"Ã¦Ä":3426,"Äłattr":3427,"Äłpatri":3428,"Äłlegisl":3429,"Eng":3430,"Äłcontrad":3431,"whel":3432,"while":3433,"ÄłContin":3434,"Äłmotiv":3435,"ustral":3436,"Äłtermin":3437,"****************":3438,"Äłcritic":3439,"Äłinflu":3440,"efully":3441,"ritten":3442,"Äłphilos":3443,"Äłacknowled":3444,"reprene":3445,"\",":3446,"98":3447,"AB":3448,"CR":3449,"Cons":3450,"EY":3451,"Ed":3452,"Em":3453,"EST":3454,"FL":3455,"Is":3456,"ML":3457,"MS":3458,"Mod":3459,"NA":3460,"Net":3461,"OV":3462,"Op":3463,"ORE":3464,"PP":3465,"Pr":3466,"Pre":3467,"QU":3468,"RI":3469,"SL":3470,"Ser":3471,"Sim":3472,"Sup":3473,"Str":3474,"Spec":3475,"TER":3476,"Text":3477,"We":3478,"``":3479,"aa":3480,"ael":3481,"bal":3482,"bol":3483,"body":3484,"cs":3485,"cement":3486,"coh":3487,"cycl":3488,"dis":3489,"dem":3490,"doc":3491,"dep":3492,"def":3493,"ez":3494,"east":3495,"fall":3496,"friend":3497,"gy":3498,"gar":3499,"hh":3500,"hal":3501,"hand":3502,"host":3503,"house":3504,"iation":3505,"iod":3506,"itic":3507,"ivery":3508,"ji":3509,"king":3510,"lam":3511,"lers":3512,"lation":3513,"log":3514,"mate":3515,"mond":3516,"mosp":3517,"nic":3518,"oter":3519,"oir":3520,"oop":3521,"pm":3522,"rent":3523,"rend":3524,"rite":3525,"spe":3526,"tw":3527,"tar":3528,"uh":3529,"uan":3530,"uce":3531,"uary":3532,"uits":3533,"vy":3534,"vin":3535,"vity":3536,"win":3537,"west":3538,"wide":3539,"with":3540,"wich":3541,"water":3542,"xim":3543,"yle":3544,"zed":3545,"},":3546,"¨Ä´":3547,"Ãħ":3548,"Ä£":3549,"Äµ":3550,"Ä»":3551,"ÅĢ":3552,"Äłly":3553,"Äłul":3554,"Äłtit":3555,"ini":3556,"inos":3557,"ints":3558,"inated":3559,"inally":3560,"erent":3561,"enef":3562,"edge":3563,"ati":3564,"aters":3565,"atform":3566,"aru":3567,"arrow":3568,"alg":3569,"aled":3570,"alse":3571,"oration":3572,"ortion":3573,"orous":3574,"orph":3575,"orage":3576,"orough":3577,"Äłsen":3578,"Äłsing":3579,"Äłsand":3580,"Äłsav":3581,"Äłsex":3582,"Äłswe":3583,"Äłsatisf":3584,"Äłcos":3585,"Äłcow":3586,"Äłcop":3587,"Äłcard":3588,"Äłcry":3589,"Äłcru":3590,"Äłcaus":3591,"Äłcross":3592,"tist":3593,"iser":3594,"istered":3595,"Äłpan":3596,"Äłpil":3597,"Äłpul":3598,"Äłpast":3599,"Äłpron":3600,"Äłpitch":3601,"Äłpubl":3602,"Äłpublic":3603,"ica":3604,"iced":3605,"icts":3606,"iche":3607,"ician":3608,"ictions":3609,"icious":3610,"icians":3611,"lege":3612,"itable":3613,"itude":3614,"roc":3615,"rovers":3616,"rooms":3617,"Äłdat":3618,"Äłdil":3619,"Äłdirect":3620,"Äłdirec":3621,"aser":3622,"ÄłSH":3623,"ÄłSP":3624,"ÄłSU":3625,"ÄłSy":3626,"ÄłSen":3627,"ÄłSor":3628,"ÄłSqu":3629,"ÄłSpr":3630,"ela":3631,"eling":3632,"eline":3633,"unes":3634,"unct":3635,"actions":3636,"ÄłCer":3637,"ÄłCher":3638,"ÄłCath":3639,"ÄłClo":3640,"ÄłCong":3641,"entle":3642,"urance":3643,"iltr":3644,"ilater":3645,"oming":3646,"Äłban":3647,"Äłble":3648,"Äłbec":3649,"Äłbra":3650,"Äłboun":3651,"Äłbook":3652,"Äłbuff":3653,"Äłburn":3654,"Äłbott":3655,"Äłbuild":3656,"Äłbrief":3657,"olate":3658,"olesc":3659,"Äłmal":3660,"Äłmil":3661,"Äłmay":3662,"Äłmix":3663,"Äłmax":3664,"Äłmarg":3665,"Äłmasc":3666,"Äłmerc":3667,"Äłmigr":3668,"Äłtes":3669,"Äłten":3670,"Äłtor":3671,"Äłtop":3672,"Äłtrig":3673,"Äłtwe":3674,"Äłtrem":3675,"Äłtext":3676,"Äłfab":3677,"Äłfig":3678,"Äłfore":3679,"Äłfact":3680,"Äłfram":3681,"Äłfree":3682,"Äłfavor":3683,"Äłfulf":3684,"amine":3685,"eta":3686,"etter":3687,"ader":3688,"riage":3689,"ÄłPL":3690,"ÄłPay":3691,"ÄłPerson":3692,"ÄłAL":3693,"ÄłAM":3694,"ÄłAv":3695,"ÄłAut":3696,"ÄłAud":3697,"ÄłMat":3698,"ÄłMem":3699,"ÄłMess":3700,"ÄłMont":3701,"ÄłMah":3702,"lymp":3703,"ÄłBow":3704,"ÄłBudd":3705,"emn":3706,"empor":3707,"ulous":3708,"Äłinqu":3709,"Äłinher":3710,"Äłinex":3711,"rael":3712,"ÄłRh":3713,"ÄłRest":3714,"ÄłRich":3715,"ÄłRuss":3716,"uty":3717,"uters":3718,"utely":3719,"utton":3720,"Äłreview":3721,"osc":3722,"ÄłTur":3723,"ÄłTim":3724,"Äłhun":3725,"Äłhab":3726,"Äłhot":3727,"Äłhous":3728,"Äłhistor":3729,"ÄłDE":3730,"ÄłDi":3731,"ÄłDest":3732,"ÄłDown":3733,"ÄłDirect":3734,"abs":3735,"abel":3736,"abilities":3737,"tional":3738,"igration":3739,"agu":3740,"agen":3741,"oted":3742,"oting":3743,"otype":3744,"Äłgun":3745,"Äłgraph":3746,"apon":3747,"aping":3748,"apers":3749,"ÄłHor":3750,"ÄłHun":3751,"Äłlay":3752,"Äłliter":3753,"iring":3754,"irts":3755,"essions":3756,"ÄłFil":3757,"ÄłLuc":3758,"ÄłLog":3759,"ÄłLou":3760,"Äłele":3761,"Äłearn":3762,"Äłevery":3763,"Äłweb":3764,"Äłwarr":3765,"ÄłGen":3766,"ÄłGar":3767,"ÄłGri":3768,"ÄłGra":3769,"ÄłEp":3770,"ÄłEqu":3771,"ÄłEvery":3772,"ople":3773,"ocated":3774,"ocial":3775,"ocused":3776,"Äłconce":3777,"Äłconven":3778,"Äłconstr":3779,"Äłconcent":3780,"Äłconnec":3781,"stro":3782,"standing":3783,"Äłrul":3784,"Äłradi":3785,"oded":3786,"quis":3787,"Äłnight":3788,"Äłnarr":3789,"Äłnorth":3790,"Äłnomin":3791,"ÄłIP":3792,"ÄłIr":3793,"ÄłWar":3794,"ÄłWal":3795,"ÄłWil":3796,"ÄłWeb":3797,"ÄłNor":3798,"ÄłNot":3799,"istent":3800,"isters":3801,"istant":3802,"istence":3803,"Äłstra":3804,"Äłstart":3805,"ucted":3806,"uctions":3807,"tices":3808,"ogen":3809,"ogether":3810,"Äłvan":3811,"Äłvill":3812,"Äłveter":3813,"Äłvirt":3814,"Äłvacc":3815,"iper":3816,"ubs":3817,"Äłexh":3818,"Äłprol":3819,"Äłpropos":3820,"Äłprojec":3821,"iven":3822,"udden":3823,"ÄłOs":3824,"ÄłOff":3825,"ÄłOper":3826,"asses":3827,"enses":3828,"ensity":3829,"ibl":3830,"avid":3831,"aller":3832,"ounts":3833,"ounted":3834,"ÄłJer":3835,"ÄłJack":3836,"ÄłJenn":3837,"Äłdisag":3838,"ighter":3839,"ourge":3840,"ourse":3841,"tress":3842,"oker":3843,"Äłspons":3844,"Äłshoot":3845,"Äłchild":3846,"Äłchalleng":3847,"obs":3848,"obal":3849,"ÄłUk":3850,"early":3851,"ishes":3852,"ÄłInvestig":3853,"asty":3854,"Äładop":3855,"Äładvent":3856,"Äładvertis":3857,"clusion":3858,"orders":3859,"Äłanal":3860,"Äłanim":3861,"artment":3862,"oven":3863,"overs":3864,"ÄłStat":3865,"ÄłStar":3866,"ÄłSteph":3867,"Äłimpl":3868,"Äłimper":3869,"Äłclaim":3870,"prise":3871,"pton":3872,"redit":3873,"Äłsci":3874,"Äłkey":3875,"achel":3876,"Äłarg":3877,"Äłarm":3878,"Äłartif":3879,"ocker":3880,"athan":3881,"timate":3882,"oyal":3883,"ught":3884,"berry":3885,"Äłthro":3886,"Äłenjoy":3887,"Äłrot":3888,"Äłroll":3889,"issance":3890,"Äłcompar":3891,"Äłemphas":3892,"ysical":3893,"Äłpret":3894,"Äłprepar":3895,"rowd":3896,"ERS":3897,"ollow":3898,"aza":3899,"teen":3900,"anny":3901,"anner":3902,"anning":3903,"annel":3904,"ressed":3905,"rams":3906,"Äłaltern":3907,"Äłalleg":3908,"Äłrecip":3909,"Äłcontribut":3910,"prot":3911,"ixel":3912,"righ":3913,"ÄłProf":3914,"airy":3915,"aired":3916,"Äłpartic":3917,"overe":3918,"overy":3919,"overed":3920,"Äłconsult":3921,"Äłconsider":3922,"ÄłComm":3923,"Äłinspir":3924,"arma":3925,"eader":3926,"Äłassass":3927,"Äłassoci":3928,"Äłappropri":3929,"ernand":3930,"ÄłArg":3931,"ealing":3932,"riting":3933,"rade":3934,"Inter":3935,"Äłphen":3936,"arget":3937,"ATE":3938,"oxic":3939,"enger":3940,"Äłoblig":3941,"aneous":3942,"Äłampl":3943,"ictor":3944,"umbers":3945,"Äłsever":3946,"ushed":3947,"ÄłAdv":3948,"tivity":3949,"Stud":3950,"Stream":3951,"Äłwhis":3952,"Äłcorrel":3953,"Äłstrong":3954,"Äłstrateg":3955,"Äłstrength":3956,"ountain":3957,"ifications":3958,"Äłacceler":3959,"Äłmanip":3960,"Äłneuro":3961,"lessly":3962,"umped":3963,"tisan":3964,"ÄłPhot":3965,"Äłgui":3966,"ESS":3967,"riving":3968,"raining":3969,"rench":3970,"ÄłÃİ":3971,"Äłpresc":3972,"ANT":3973,"rison":3974,"Ã£Ä¥Ä¨":3975,"aunt":3976,"tify":3977,"tified":3978,"ÄłMcG":3979,"plicit":3980,"ASE":3981,"roller":3982,"rolled":3983,"ICE":3984,"Äłdesp":3985,"Äłdiagn":3986,"Äłdiplom":3987,"iversity":3988,"asket":3989,"Äłexplo":3990,"oaded":3991,"archy":3992,"ACK":3993,"Äłelim":3994,"Äłcalcul":3995,"ruption":3996,"rupted":3997,"Äłrestric":3998,"opped":3999,"Äłextrem":4000,"ospital":4001,"Äłweak":4002,"aults":4003,"Äłsimpl":4004,"Äłbreak":4005,"chester":4006,"ference":4007,"Äłencour":4008,"onna":4009,"Äłdeep":4010,"urrent":4011,"ilitary":4012,"essional":4013,"Äłrespond":4014,"Add":4015,"Äłbelie":4016,"Äłillustr":4017,"otice":4018,"Äłcharacter":4019,"orksh":4020,"Äłpurch":4021,"respond":4022,"Äłclean":4023,"ÄłSurv":4024,"irds":4025,"ÄłFrank":4026,"Äłdocument":4027,"ependent":4028,"claimed":4029,"ÄłPrinc":4030,"Äłsubsid":4031,"alysis":4032,"ividual":4033,"itizens":4034,"vironment":4035,"Äłstere":4036,"clusive":4037,"uilt":4038,"Äłreinfor":4039,"Äłmurder":4040,"Äłincorpor":4041,"\".":4042,"$$":4043,"%%":4044,"'\"":4045,"100":4046,"41":4047,"56":4048,"AF":4049,"Ab":4050,"Ap":4051,"All":4052,"ARE":4053,"BA":4054,"BI":4055,"CO":4056,"DR":4057,"Ds":4058,"Des":4059,"Dis":4060,"Det":4061,"Doc":4062,"Dep":4063,"Donald":4064,"EP":4065,"EV":4066,"EXT":4067,"For":4068,"IV":4069,"IRE":4070,"IED":4071,"Load":4072,"Med":4073,"Man":4074,"Ne":4075,"Ob":4076,"PC":4077,"QL":4078,"RC":4079,"Re":4080,"Rel":4081,"Rem":4082,"Ref":4083,"Rob":4084,"Rev":4085,"Requ":4086,"Redd":4087,"TA":4088,"TON":4089,"TION":4090,"Ul":4091,"UST":4092,"VID":4093,"With":4094,"aed":4095,"aug":4096,"aund":4097,"bed":4098,"bow":4099,"band":4100,"born":4101,"book":4102,"brid":4103,"backs":4104,"can":4105,"cil":4106,"cial":4107,"coin":4108,"fix":4109,"found":4110,"gen":4111,"gel":4112,"gener":4113,"ght":4114,"how":4115,"hou":4116,"haps":4117,"ii":4118,"iov":4119,"iency":4120,"ju":4121,"jud":4122,"just":4123,"ka":4124,"ko":4125,"ker":4126,"ken":4127,"kay":4128,"ktop":4129,"lr":4130,"lv":4131,"lad":4132,"list":4133,"lav":4134,"lines":4135,"mal":4136,"made":4137,"nect":4138,"night":4139,"oen":4140,"oing":4141,"oub":4142,"oard":4143,"pent":4144,"pop":4145,"pire":4146,"pool":4147,"rs":4148,"rat":4149,"ras":4150,"rance":4151,"so":4152,"sch":4153,"serv":4154,"soft":4155,"tain":4156,"town":4157,"turn":4158,"uin":4159,"uated":4160,"utive":4161,"vious":4162,"ya":4163,"yg":4164,"zy":4165,"||":4166,"Ã¡":4167,"Ä«":4168,"Ä¬":4169,"Äłil":4170,"Äłet":4171,"Äłast":4172,"ÄłÃ¢Ä¢":4173,"Äłerr":4174,"Äłurg":4175,"Äłansw":4176,"inted":4177,"inations":4178,"inals":4179,"erd":4180,"erted":4181,"erred":4182,"erences":4183,"onia":4184,"onge":4185,"estic":4186,"estiv":4187,"esome":4188,"ench":4189,"entic":4190,"anch":4191,"anim":4192,"anche":4193,"attered":4194,"ala":4195,"aling":4196,"alth":4197,"alks":4198,"orer":4199,"orig":4200,"inge":4201,"ingly":4202,"Äłsr":4203,"Äłsun":4204,"Äłsent":4205,"Äłsam":4206,"Äłset":4207,"Äłshe":4208,"Äłseg":4209,"Äłsanc":4210,"Äłsne":4211,"Äłsome":4212,"Äłsoph":4213,"Äłsched":4214,"Äłsoft":4215,"Äłsystem":4216,"Äłcy":4217,"Äłcig":4218,"Äłcens":4219,"Äłcorn":4220,"Äłcurs":4221,"Äłcount":4222,"Äłcris":4223,"Äłcateg":4224,"Äłcycl":4225,"ref":4226,"rees":4227,"rets":4228,"reated":4229,"report":4230,"reck":4231,"tian":4232,"till":4233,"titive":4234,"isen":4235,"isode":4236,"Äłpet":4237,"Äłpra":4238,"Äłpig":4239,"Äłpip":4240,"Äłpray":4241,"Äłpuzz":4242,"Äłpione":4243,"icing":4244,"icit":4245,"ictim":4246,"leep":4247,"lease":4248,"itals":4249,"road":4250,"Äłdro":4251,"Äłdark":4252,"Äłdram":4253,"Äłdead":4254,"asant":4255,"asive":4256,"ÄłSi":4257,"ÄłSac":4258,"ÄłSab":4259,"ÄłSum":4260,"ÄłSand":4261,"ÄłSant":4262,"ÄłSher":4263,"ÄłSav":4264,"ÄłSign":4265,"ÄłSyn":4266,"ÄłSym":4267,"ÄłSky":4268,"eled":4269,"elly":4270,"eland":4271,"elves":4272,"elesc":4273,"elcome":4274,"acon":4275,"acity":4276,"acement":4277,"ÄłCH":4278,"ÄłCel":4279,"ÄłCos":4280,"ÄłCoun":4281,"ÄłCann":4282,"ÄłCorn":4283,"ÄłCook":4284,"ÄłCarn":4285,"ÄłCru":4286,"ÄłCele":4287,"ÄłCrim":4288,"ÄłCOM":4289,"enting":4290,"ional":4291,"urred":4292,"urse":4293,"iler":4294,"ilation":4295,"oma":4296,"omi":4297,"omp":4298,"omer":4299,"omic":4300,"Äłbu":4301,"Äłbes":4302,"Äłbol":4303,"Äłbad":4304,"Äłbow":4305,"Äłbud":4306,"Äłbure":4307,"Äłbath":4308,"Äłbank":4309,"Äłbox":4310,"Äłborrow":4311,"ola":4312,"olve":4313,"olving":4314,"olutely":4315,"Äłment":4316,"Äłmom":4317,"Äłmand":4318,"Äłmain":4319,"Äłmov":4320,"Äłmind":4321,"Äłmemb":4322,"Äłmamm":4323,"Äłmaster":4324,"Äłmaint":4325,"Äłmyster":4326,"Äłtom":4327,"Äłtot":4328,"Äłtum":4329,"Äłtow":4330,"Äłtub":4331,"Äłtack":4332,"Äłtour":4333,"Äłtex":4334,"Äłtreat":4335,"Äłtreas":4336,"Äłturb":4337,"Äłtouch":4338,"Äłtoler":4339,"Äłfra":4340,"Äłfant":4341,"Äłfail":4342,"Äłfound":4343,"Äłfeat":4344,"Äłfurn":4345,"Äłfrequ":4346,"Äłfunction":4347,"Äłfemin":4348,"Äłfresh":4349,"amph":4350,"etch":4351,"etary":4352,"ady":4353,"aded":4354,"adel":4355,"aders":4356,"advant":4357,"ria":4358,"rier":4359,"ritical":4360,"rike":4361,"riends":4362,"ÄłPC":4363,"ÄłPen":4364,"ÄłPol":4365,"ÄłPart":4366,"ÄłPred":4367,"ÄłPark":4368,"ÄłPower":4369,"ÄłPrem":4370,"ÄłAw":4371,"ÄłAz":4372,"ÄłAch":4373,"ÄłAir":4374,"ÄłAug":4375,"ÄłAmeric":4376,"ÄłML":4377,"ÄłMS":4378,"ÄłMand":4379,"ÄłMill":4380,"ÄłMort":4381,"ÄłMerc":4382,"erse":4383,"ersion":4384,"ecd":4385,"ecraft":4386,"ÄłBy":4387,"ÄłBer":4388,"ÄłBal":4389,"ÄłBang":4390,"ÄłBund":4391,"ÄłBern":4392,"ÄłBuff":4393,"ÄłBrew":4394,"ÄłBarb":4395,"eman":4396,"ematic":4397,"emale":4398,"emble":4399,"ully":4400,"ulating":4401,"idth":4402,"idate":4403,"idity":4404,"idden":4405,"idential":4406,"rah":4407,"raq":4408,"ÄłRub":4409,"ÄłRock":4410,"ÄłRoll":4411,"uting":4412,"uture":4413,"cher":4414,"chem":4415,"chest":4416,"charg":4417,"check":4418,"change":4419,"Äłreve":4420,"Äłrever":4421,"Äłrevers":4422,"Äłreason":4423,"ÄłTR":4424,"ÄłTs":4425,"ÄłTac":4426,"ÄłTom":4427,"ÄłTri":4428,"ÄłTher":4429,"ÄłTele":4430,"ÄłTurn":4431,"Äłhes":4432,"Äłham":4433,"Äłhos":4434,"Äłhall":4435,"Äłhyd":4436,"ÄłDO":4437,"ÄłDon":4438,"ÄłDen":4439,"ÄłDiv":4440,"ÄłDiff":4441,"abl":4442,"abase":4443,"igm":4444,"iger":4445,"igen":4446,"agh":4447,"agan":4448,"agraph":4449,"otted":4450,"ima":4451,"ims":4452,"Äłgal":4453,"Äłgri":4454,"Äłgood":4455,"umed":4456,"umph":4457,"umps":4458,"apy":4459,"apes":4460,"aped":4461,"apan":4462,"apons":4463,"ÄłHy":4464,"ÄłHam":4465,"ÄłHow":4466,"ÄłHand":4467,"ÄłHard":4468,"ÄłHear":4469,"ÄłHann":4470,"Äłlat":4471,"Äłless":4472,"Äłliv":4473,"Äłlook":4474,"Äłlaugh":4475,"Äłliqu":4476,"essing":4477,"essage":4478,"ÄłFre":4479,"ÄłFac":4480,"ÄłForm":4481,"ÄłFran":4482,"ÄłLib":4483,"ÄłLear":4484,"ÄłLyn":4485,"ÄłLaur":4486,"Äłeffic":4487,"Äłearth":4488,"Äłelev":4489,"Äłwhe":4490,"Äłwast":4491,"Äłwild":4492,"Äłwrest":4493,"Äłweek":4494,"Äłworld":4495,"Äłwonder":4496,"ÄłGP":4497,"ÄłGal":4498,"ÄłGold":4499,"ÄłGood":4500,"ÄłGovern":4501,"owder":4502,"ÄłEV":4503,"ÄłEs":4504,"ÄłEss":4505,"ÄłEuro":4506,"ÄłElectr":4507,"ÄłEconom":4508,"opic":4509,"ocus":4510,"ocate":4511,"ocracy":4512,"esters":4513,"estation":4514,"estine":4515,"Äłconvers":4516,"Äłconfl":4517,"Äłconduc":4518,"Äłcongr":4519,"Äłconsequ":4520,"sters":4521,"stance":4522,"store":4523,"stream":4524,"Äłrh":4525,"Äłrat":4526,"Äłrun":4527,"Äłrum":4528,"oding":4529,"oday":4530,"odies":4531,"odge":4532,"ques":4533,"Äłnu":4534,"Äłnin":4535,"Äłnet":4536,"Äłnav":4537,"Äłnob":4538,"Äłnov":4539,"Äłnational":4540,"Äłnecess":4541,"ÄłWhe":4542,"ÄłNY":4543,"ÄłNo":4544,"ÄłNet":4545,"ÄłNik":4546,"ÄłNorth":4547,"thing":4548,"thers":4549,"istan":4550,"istle":4551,"atever":4552,"ateful":4553,"ayed":4554,"pling":4555,"Äłstret":4556,"Äłstream":4557,"Äłstaff":4558,"endant":4559,"endants":4560,"uced":4561,"Äłunt":4562,"Äłunex":4563,"Äłunint":4564,"oga":4565,"ogle":4566,"ograp":4567,"aka":4568,"Äłvo":4569,"Äłvit":4570,"Äłvide":4571,"iph":4572,"iple":4573,"anting":4574,"ÄłKe":4575,"ÄłKat":4576,"ouses":4577,"upt":4578,"Äłexerc":4579,"Äłexceed":4580,"Äłprosec":4581,"Äłproceed":4582,"ivity":4583,"ÄłOP":4584,"ÄłOm":4585,"ÄłOut":4586,"ÄłOrig":4587,"ÄłOffic":4588,"ÄłOcc":4589,"ÄłOlymp":4590,"Äłox":4591,"assic":4592,"ensed":4593,"hern":4594,"ÄłVis":4595,"ÄłVeg":4596,"allery":4597,"aine":4598,"ainer":4599,"ansion":4600,"Äłcomed":4601,"ounce":4602,"ÄłJu":4603,"ÄłJac":4604,"ÄłJohn":4605,"ifying":4606,"Äłdismiss":4607,"Äłdiscipl":4608,"ello":4609,"ighth":4610,"trans":4611,"izard":4612,"izations":4613,"izont":4614,"iah":4615,"Ã¢Äº":4616,"okÃĥ":4617,"pha":4618,"Äłspect":4619,"Äłax":4620,"Äłaer":4621,"ortex":4622,"Äłshr":4623,"Äłcho":4624,"Äłcharg":4625,"obi":4626,"obile":4627,"obby":4628,"ryp":4629,"eared":4630,"earance":4631,"ishop":4632,"ÄłInstr":4633,"ÄłInvest":4634,"iana":4635,"asters":4636,"ormon":4637,"Äładvers":4638,"ÄłChar":4639,"ÄłChris":4640,"ÄłCharl":4641,"Äłact":4642,"perty":4643,"Äłanticip":4644,"Äłancest":4645,"appy":4646,"appropri":4647,"ework":4648,"arters":4649,"ancer":4650,"ancial":4651,"ustin":4652,"aily":4653,"Äłimplement":4654,"icker":4655,"icken":4656,"prises":4657,"Äłresc":4658,"Äłresemb":4659,"awa":4660,"Äłjur":4661,"Äłjournal":4662,"Äłscen":4663,"Äłkil":4664,"Äłkind":4665,"achine":4666,"irection":4667,"Äłartic":4668,"ighty":4669,"ighters":4670,"ikh":4671,"ikes":4672,"outing":4673,"outhe":4674,"coming":4675,"compan":4676,"Äłthreat":4677,"Äłround":4678,"Äłrock":4679,"eeing":4680,"look":4681,"inters":4682,"Äłcomple":4683,"Äłcompet":4684,"Äłcomprom":4685,"Äłcomplex":4686,"Äłlearn":4687,"inson":4688,"onduct":4689,"Äłemerg":4690,"Äłpreced":4691,"amps":4692,"ERE":4693,"ervation":4694,"ervative":4695,"Äłcoinc":4696,"Äłcooper":4697,"olding":4698,"ollar":4699,"azi":4700,"azz":4701,"azard":4702,"azine":4703,"tein":4704,"anners":4705,"itionally":4706,"Äłblock":4707,"ressing":4708,"Äłalter":4709,"Äłreck":4710,"Äłrecon":4711,"Äłcontempl":4712,"Äłflav":4713,"Äłflash":4714,"portion":4715,"ologically":4716,"Äłque":4717,"Äłquestion":4718,"entially":4719,"Äłparam":4720,"ÄłComp":4721,"isms":4722,"Äłassign":4723,"Äłassemb":4724,"Äłappar":4725,"ernal":4726,"ernity":4727,"iolet":4728,"oof":4729,"poses":4730,"ÄłSpir":4731,"Äłinterven":4732,"Äłinterview":4733,"ronic":4734,"Äłpharm":4735,"argo":4736,"ÄłExp":4737,"ÄłExper":4738,"plete":4739,"Äłincre":4740,"Äłincons":4741,"ATION":4742,"Äłsuppl":4743,"Äłsuperv":4744,"Äłsupplement":4745,"ucky":4746,"ucker":4747,"Äłobsc":4748,"Äłtransc":4749,"186":4750,"189":4751,"inked":4752,"enny":4753,"ucture":4754,"aterial":4755,"ething":4756,"Äłoverwhel":4757,"ARD":4758,"ART":4759,"cient":4760,"pects":4761,"pecting":4762,"pective":4763,"Äłrab":4764,"inners":4765,"ushes":4766,"ushing":4767,"Ã¢Ä¢Äµ":4768,"Ã¢Ä¢ÄŃ":4769,"ÄłConf":4770,"netic":4771,"Äłrelig":4772,"ÄłEnd":4773,"Äłsurround":4774,"Äłdiscuss":4775,"Äłdiscrimin":4776,"ohyd":4777,"Äłdepos":4778,"Äłdepend":4779,"ascript":4780,"Äłtrav":4781,"Äłtravel":4782,"ORK":4783,"enez":4784,"Äłstrugg":4785,"arrass":4786,"ularly":4787,"ificant":4788,"Äłaccum":4789,"Äłapplic":4790,"reek":4791,"itches":4792,"Äłdistribut":4793,"Äłdisturb":4794,"Äłdistingu":4795,"umption":4796,"Äłinvest":4797,"Äłguarant":4798,"Äłconfig":4799,"auti":4800,"ÄłÃ¨":4801,"Äłupd":4802,"ÄłBlack":4803,"othes":4804,"ields":4805,"ielding":4806,"ointed":4807,"Äłtight":4808,"pressed":4809,"mitting":4810,"alker":4811,"tification":4812,"ÄłMcK":4813,"ophob":4814,"iberal":4815,"jected":4816,"pired":4817,"Äłentreprene":4818,"rolling":4819,"ublished":4820,"unner":4821,"ÄłRequ":4822,"Äłundert":4823,"Äłexplos":4824,"Â£Â«":4825,"Äłende":4826,"Äłendors":4827,"ÄłImpro":4828,"Äłaspir":4829,"Äłunders":4830,"cluded":4831,"AME":4832,"spect":4833,"00000000":4834,"missions":4835,"ittle":4836,"oids":4837,"tility":4838,"ÄłResp":4839,"Äłweigh":4840,"ÄłOrgan":4841,"Äłaffili":4842,"oever":4843,"Äłbreath":4844,"Äłmetab":4845,"loaded":4846,"liament":4847,"Äłtheor":4848,"ython":4849,"Äłdeploy":4850,"ÄłAppro":4851,"Äłheav":4852,"OME":4853,"Äłfract":4854,"Äłfacilit":4855,"ÄłAssoci":4856,"ILL":4857,"Äłbelong":4858,"Äłvolunte":4859,"ihad":4860,"Äłcapital":4861,"Äłinstall":4862,"ocratic":4863,"ÄłIslam":4864,"!!!!":4865,"Äłpersu":4866,"olitical":4867,"amination":4868,"ÄłInteg":4869,"uilding":4870,"Äłveh":4871,"Äłveget":4872,"Äłrenew":4873,"respons":4874,"grade":4875,"metic":4876,"necess":4877,"Äłpsychiat":4878,"amera":4879,"iddle":4880,"Äłhelp":4881,"ÄłFranc":4882,"Äłengine":4883,"Trans":4884,"Äłtemper":4885,"ettings":4886,"Äłaccompl":4887,"Äłaccompan":4888,"Äłaccommod":4889,"Äłestablish":4890,"ÄłDefin":4891,"ocalyp":4892,"Äłexperiment":4893,"ibrary":4894,"Äłestim":4895,"rehens":4896,"Äłinnov":4897,"Äłwithdraw":4898,"ynamic":4899,"Äłabsor":4900,"Äłcultiv":4901,"anguage":4902,"titutional":4903,"Äłescal":4904,"Äłpenet":4905,"Äłpartn":4906,"Äłmillenn":4907,"Äłfundament":4908,"onymous":4909,"Äłcampaign":4910,"Äłdeleg":4911,"rafted":4912,"Äłafter":4913,"Online":4914,"olitan":4915,"Item":4916,"burgh":4917,"Äłsacrif":4918,"reensh":4919,"Äłconstitu":4920,"umbnail":4921,"Äłbehavi":4922,"prisingly":4923,"gorith":4924,"Äłshowc":4925,"Äładministr":4926,"Äłphilosoph":4927,"cohol":4928,"\"/":4929,"\">":4930,"\"]":4931,"()":4932,"())":4933,"03":4934,"42":4935,"76":4936,"86":4937,"AX":4938,"Af":4939,"Ag":4940,"As":4941,"At":4942,"Americ":4943,"Avail":4944,"BO":4945,"Be":4946,"By":4947,"Bre":4948,"CA":4949,"CD":4950,"DA":4951,"DL":4952,"DP":4953,"Do":4954,"Del":4955,"Dec":4956,"Dem":4957,"Date":4958,"Def":4959,"Down":4960,"DER":4961,"Disc":4962,"El":4963,"Ev":4964,"Every":4965,"FA":4966,"FI":4967,"Fil":4968,"FOR":4969,"Ge":4970,"Gu":4971,"Gold":4972,"Gener":4973,"HH":4974,"HS":4975,"IB":4976,"LD":4977,"Leg":4978,"MO":4979,"MP":4980,"Min":4981,"Mon":4982,"Mus":4983,"Mich":4984,"ND":4985,"Nit":4986,"Name":4987,"OH":4988,"Over":4989,"Off":4990,"Orig":4991,"Offic":4992,"OOD":4993,"PM":4994,"PN":4995,"Per":4996,"Pal":4997,"RL":4998,"RS":4999}